{
  "version": "1.0",
  "truncation": null,
  "padding": null,
  "added_tokens": [
    {
      "id": 0,
      "content": "[PAD]",
      "single_word": false,
      "lstrip": false,
      "rstrip": false,
      "normalized": false,
      "special": true
    },
    {
      "id": 1,
      "content": "[UNK]",
      "single_word": false,
      "lstrip": false,
      "rstrip": false,
      "normalized": false,
      "special": true
    },
    {
      "id": 2,
      "content": "[CLS]",
      "single_word": false,
      "lstrip": false,
      "rstrip": false,
      "normalized": false,
      "special": true
    },
    {
      "id": 3,
      "content": "[SEP]",
      "single_word": false,
      "lstrip": false,
      "rstrip": false,
      "normalized": false,
      "special": true
    },
    {
      "id": 4,
      "content": "[MASK]",
      "single_word": false,
      "lstrip": false,
      "rstrip": false,
      "normalized": false,
      "special": true
    }
  ],
  "normalizer": {
    "type": "BertNormalizer",
    "clean_text": true,
    "handle_chinese_chars": true,
    "strip_accents": null,
    "lowercase": true
  },
  "pre_tokenizer": {
    "type": "BertPreTokenizer"
  },
  "post_processor": {
    "type": "TemplateProcessing",
    "single": [
      {
        "SpecialToken": {
          "id": "[CLS]",
          "type_id": 0
        }
      },
      {
        "Sequence": {
          "id": "A",
          "type_id": 0
        }
      },
      {
        "SpecialToken": {
          "id": "[SEP]",
          "type_id": 0
        }
      }
    ],
    "pair": [
      {
        "SpecialToken": {
          "id": "[CLS]",
          "type_id": 0
        }
      },
      {
        "Sequence": {
          "id": "A",
          "type_id": 0
        }
      },
      {
        "SpecialToken": {
          "id": "[SEP]",
          "type_id": 0
        }
      },
      {
        "Sequence": {
          "id": "B",
          "type_id": 1
        }
      },
      {
        "SpecialToken": {
          "id": "[SEP]",
          "type_id": 1
        }
      }
    ],
    "special_tokens": {
      "[CLS]": {
        "id": "[CLS]",
        "ids": [
          2
        ],
        "tokens": [
          "[CLS]"
        ]
      },
      "[SEP]": {
        "id": "[SEP]",
        "ids": [
          3
        ],
        "tokens": [
          "[SEP]"
        ]
      }
    }
  },
  "decoder": {
    "type": "WordPiece",
    "prefix": "##",
    "cleanup": true
  },
  "model": {
    "type": "WordPiece",
    "unk_token": "[UNK]",
    "continuing_subword_prefix": "##",
    "max_input_chars_per_word": 100,
    "vocab": {
      "[PAD]": 0,
      "[UNK]": 1,
      "[CLS]": 2,
      "[SEP]": 3,
      "[MASK]": 4,
      "<S>": 5,
      "<T>": 6,
      "!": 7,
      "\"": 8,
      "#": 9,
      "$": 10,
      "%": 11,
      "&": 12,
      "'": 13,
      "(": 14,
      ")": 15,
      "*": 16,
      "+": 17,
      ",": 18,
      "-": 19,
      ".": 20,
      "/": 21,
      "0": 22,
      "1": 23,
      "2": 24,
      "3": 25,
      "4": 26,
      "5": 27,
      "6": 28,
      "7": 29,
      "8": 30,
      "9": 31,
      ":": 32,
      ";": 33,
      "<": 34,
      "=": 35,
      ">": 36,
      "?": 37,
      "@": 38,
      "[": 39,
      "\\": 40,
      "]": 41,
      "^": 42,
      "_": 43,
      "`": 44,
      "a": 45,
      "b": 46,
      "c": 47,
      "d": 48,
      "e": 49,
      "f": 50,
      "g": 51,
      "h": 52,
      "i": 53,
      "j": 54,
      "k": 55,
      "l": 56,
      "m": 57,
      "n": 58,
      "o": 59,
      "p": 60,
      "q": 61,
      "r": 62,
      "s": 63,
      "t": 64,
      "u": 65,
      "v": 66,
      "w": 67,
      "x": 68,
      "y": 69,
      "z": 70,
      "{": 71,
      "|": 72,
      "}": 73,
      "~": 74,
      "¡": 75,
      "£": 76,
      "¤": 77,
      "¥": 78,
      "§": 79,
      "©": 80,
      "«": 81,
      "®": 82,
      "¯": 83,
      "°": 84,
      "²": 85,
      "³": 86,
      "´": 87,
      "·": 88,
      "¹": 89,
      "»": 90,
      "¿": 91,
      "×": 92,
      "ß": 93,
      "æ": 94,
      "ð": 95,
      "÷": 96,
      "ø": 97,
      "þ": 98,
      "đ": 99,
      "ı": 100,
      "ł": 101,
      "œ": 102,
      "ɐ": 103,
      "ə": 104,
      "ɟ": 105,
      "ɪ": 106,
      "ɴ": 107,
      "ʀ": 108,
      "ʖ": 109,
      "ʜ": 110,
      "ʟ": 111,
      "α": 112,
      "ε": 113,
      "ι": 114,
      "ο": 115,
      "ρ": 116,
      "σ": 117,
      "ω": 118,
      "а": 119,
      "в": 120,
      "д": 121,
      "е": 122,
      "и": 123,
      "к": 124,
      "м": 125,
      "н": 126,
      "о": 127,
      "р": 128,
      "с": 129,
      "т": 130,
      "у": 131,
      "ч": 132,
      "я": 133,
      "є": 134,
      "ѕ": 135,
      "،": 136,
      "؛": 137,
      "؟": 138,
      "ء": 139,
      "ا": 140,
      "ب": 141,
      "ة": 142,
      "ت": 143,
      "ث": 144,
      "ج": 145,
      "ح": 146,
      "خ": 147,
      "د": 148,
      "ذ": 149,
      "ر": 150,
      "ز": 151,
      "س": 152,
      "ش": 153,
      "ص": 154,
      "ض": 155,
      "ط": 156,
      "ظ": 157,
      "ع": 158,
      "غ": 159,
      "ـ": 160,
      "ف": 161,
      "ق": 162,
      "ك": 163,
      "ل": 164,
      "م": 165,
      "ن": 166,
      "ه": 167,
      "و": 168,
      "ى": 169,
      "ي": 170,
      "٠": 171,
      "١": 172,
      "٢": 173,
      "٣": 174,
      "٤": 175,
      "٥": 176,
      "٦": 177,
      "٧": 178,
      "٨": 179,
      "٩": 180,
      "٪": 181,
      "ٱ": 182,
      "پ": 183,
      "ڤ": 184,
      "ڨ": 185,
      "ک": 186,
      "گ": 187,
      "ھ": 188,
      "ہ": 189,
      "ۃ": 190,
      "ی": 191,
      "ے": 192,
      "۔": 193,
      "۞": 194,
      "ݣ": 195,
      "ा": 196,
      "র": 197,
      "া": 198,
      "ে": 199,
      "ღ": 200,
      "ᄀ": 201,
      "ᄂ": 202,
      "ᄃ": 203,
      "ᄅ": 204,
      "ᄆ": 205,
      "ᄇ": 206,
      "ᄉ": 207,
      "ᄋ": 208,
      "ᄌ": 209,
      "ᄒ": 210,
      "ᅡ": 211,
      "ᅥ": 212,
      "ᅩ": 213,
      "ᅮ": 214,
      "ᅳ": 215,
      "ᅵ": 216,
      "ᆫ": 217,
      "ᆯ": 218,
      "ᆷ": 219,
      "ᆼ": 220,
      "ᴀ": 221,
      "ᴇ": 222,
      "ᴍ": 223,
      "ᴏ": 224,
      "ᴛ": 225,
      "ᴻ": 226,
      "–": 227,
      "—": 228,
      "‘": 229,
      "’": 230,
      "“": 231,
      "”": 232,
      "•": 233,
      "…": 234,
      "‼": 235,
      "‿": 236,
      "⁉": 237,
      "⁰": 238,
      "⁴": 239,
      "⁵": 240,
      "⁶": 241,
      "⁷": 242,
      "⁸": 243,
      "⁹": 244,
      "₩": 245,
      "€": 246,
      "⃢": 247,
      "⃣": 248,
      "℅": 249,
      "ℝ": 250,
      "™": 251,
      "←": 252,
      "→": 253,
      "↗": 254,
      "√": 255,
      "⍛": 256,
      "┻": 257,
      "╭": 258,
      "╯": 259,
      "█": 260,
      "░": 261,
      "■": 262,
      "□": 263,
      "▶": 264,
      "◇": 265,
      "○": 266,
      "●": 267,
      "☀": 268,
      "☁": 269,
      "☄": 270,
      "★": 271,
      "☆": 272,
      "☑": 273,
      "☕": 274,
      "☘": 275,
      "☝": 276,
      "☞": 277,
      "☠": 278,
      "☢": 279,
      "☪": 280,
      "☹": 281,
      "☺": 282,
      "☻": 283,
      "♀": 284,
      "♂": 285,
      "♓": 286,
      "♠": 287,
      "♡": 288,
      "♣": 289,
      "♤": 290,
      "♥": 291,
      "♦": 292,
      "♧": 293,
      "♨": 294,
      "♪": 295,
      "⚔": 296,
      "⚕": 297,
      "⚖": 298,
      "⚘": 299,
      "⚠": 300,
      "⚡": 301,
      "⚪": 302,
      "⚫": 303,
      "⚰": 304,
      "⚽": 305,
      "⛅": 306,
      "⛓": 307,
      "⛔": 308,
      "✂": 309,
      "✅": 310,
      "✈": 311,
      "✊": 312,
      "✋": 313,
      "✌": 314,
      "✍": 315,
      "✓": 316,
      "✔": 317,
      "✖": 318,
      "✡": 319,
      "✨": 320,
      "❄": 321,
      "❌": 322,
      "❎": 323,
      "❓": 324,
      "❗": 325,
      "❣": 326,
      "❤": 327,
      "❶": 328,
      "➕": 329,
      "➡": 330,
      "⟬": 331,
      "⟭": 332,
      "⬆": 333,
      "⬇": 334,
      "⭐": 335,
      "⭕": 336,
      "ⴰ": 337,
      "ⵉ": 338,
      "ⵍ": 339,
      "ⵎ": 340,
      "ⵏ": 341,
      "ⵓ": 342,
      "ⵙ": 343,
      "ⵣ": 344,
      "。": 345,
      "《": 346,
      "》": 347,
      "』": 348,
      "ッ": 349,
      "ツ": 350,
      "ノ": 351,
      "・": 352,
      "丶": 353,
      "亗": 354,
      "刪": 355,
      "剪": 356,
      "即": 357,
      "可": 358,
      "固": 359,
      "定": 360,
      "將": 361,
      "按": 362,
      "時": 363,
      "會": 364,
      "的": 365,
      "目": 366,
      "簿": 367,
      "貼": 368,
      "除": 369,
      "項": 370,
      "꒪": 371,
      "ﮪ": 372,
      "ﺃ": 373,
      "ﺍ": 374,
      "ﺎ": 375,
      "ﺑ": 376,
      "ﺒ": 377,
      "ﺔ": 378,
      "ﺕ": 379,
      "ﺗ": 380,
      "ﺘ": 381,
      "ﺟ": 382,
      "ﺠ": 383,
      "ﺣ": 384,
      "ﺤ": 385,
      "ﺩ": 386,
      "ﺪ": 387,
      "ﺭ": 388,
      "ﺮ": 389,
      "ﺴ": 390,
      "ﺷ": 391,
      "ﺸ": 392,
      "ﻄ": 393,
      "ﻋ": 394,
      "ﻌ": 395,
      "ﻓ": 396,
      "ﻔ": 397,
      "ﻗ": 398,
      "ﻘ": 399,
      "ﻚ": 400,
      "ﻛ": 401,
      "ﻜ": 402,
      "ﻞ": 403,
      "ﻟ": 404,
      "ﻠ": 405,
      "ﻢ": 406,
      "ﻣ": 407,
      "ﻤ": 408,
      "ﻥ": 409,
      "ﻦ": 410,
      "ﻧ": 411,
      "ﻨ": 412,
      "ﻪ": 413,
      "ﻫ": 414,
      "ﻬ": 415,
      "ﻭ": 416,
      "ﻮ": 417,
      "ﻰ": 418,
      "ﻲ": 419,
      "ﻳ": 420,
      "ﻴ": 421,
      "ﻷ": 422,
      "ﻹ": 423,
      "ﻻ": 424,
      "ｆ": 425,
      "ｏ": 426,
      "ｐ": 427,
      "ｒ": 428,
      "ｔ": 429,
      "ｙ": 430,
      "｡": 431,
      "･": 432,
      "ﾉ": 433,
      "ﾟ": 434,
      "￼": 435,
      "𝔸": 436,
      "𝕄": 437,
      "𝕐": 438,
      "𝗕": 439,
      "𝗦": 440,
      "𝗧": 441,
      "🆒": 442,
      "🆘": 443,
      "🇦": 444,
      "🇧": 445,
      "🇨": 446,
      "🇩": 447,
      "🇪": 448,
      "🇫": 449,
      "🇬": 450,
      "🇭": 451,
      "🇮": 452,
      "🇯": 453,
      "🇰": 454,
      "🇱": 455,
      "🇲": 456,
      "🇳": 457,
      "🇴": 458,
      "🇵": 459,
      "🇶": 460,
      "🇷": 461,
      "🇸": 462,
      "🇹": 463,
      "🇺": 464,
      "🇻": 465,
      "🇼": 466,
      "🇽": 467,
      "🇾": 468,
      "🇿": 469,
      "🌀": 470,
      "🌃": 471,
      "🌅": 472,
      "🌈": 473,
      "🌊": 474,
      "🌋": 475,
      "🌌": 476,
      "🌍": 477,
      "🌎": 478,
      "🌏": 479,
      "🌗": 480,
      "🌙": 481,
      "🌚": 482,
      "🌛": 483,
      "🌜": 484,
      "🌝": 485,
      "🌞": 486,
      "🌟": 487,
      "🌠": 488,
      "🌪": 489,
      "🌮": 490,
      "🌰": 491,
      "🌱": 492,
      "🌲": 493,
      "🌳": 494,
      "🌴": 495,
      "🌵": 496,
      "🌶": 497,
      "🌷": 498,
      "🌸": 499,
      "🌹": 500,
      "🌺": 501,
      "🌻": 502,
      "🌼": 503,
      "🌽": 504,
      "🌾": 505,
      "🌿": 506,
      "🍀": 507,
      "🍁": 508,
      "🍂": 509,
      "🍃": 510,
      "🍅": 511,
      "🍆": 512,
      "🍇": 513,
      "🍈": 514,
      "🍉": 515,
      "🍊": 516,
      "🍋": 517,
      "🍌": 518,
      "🍍": 519,
      "🍎": 520,
      "🍏": 521,
      "🍐": 522,
      "🍑": 523,
      "🍒": 524,
      "🍓": 525,
      "🍔": 526,
      "🍕": 527,
      "🍖": 528,
      "🍗": 529,
      "🍜": 530,
      "🍞": 531,
      "🍟": 532,
      "🍠": 533,
      "🍡": 534,
      "🍧": 535,
      "🍨": 536,
      "🍩": 537,
      "🍪": 538,
      "🍫": 539,
      "🍬": 540,
      "🍭": 541,
      "🍯": 542,
      "🍰": 543,
      "🍲": 544,
      "🍳": 545,
      "🍷": 546,
      "🍸": 547,
      "🍹": 548,
      "🍺": 549,
      "🍻": 550,
      "🍼": 551,
      "🍾": 552,
      "🎀": 553,
      "🎁": 554,
      "🎂": 555,
      "🎃": 556,
      "🎄": 557,
      "🎅": 558,
      "🎆": 559,
      "🎇": 560,
      "🎈": 561,
      "🎉": 562,
      "🎊": 563,
      "🎋": 564,
      "🎓": 565,
      "🎖": 566,
      "🎗": 567,
      "🎤": 568,
      "🎥": 569,
      "🎧": 570,
      "🎩": 571,
      "🎬": 572,
      "🎭": 573,
      "🎮": 574,
      "🎯": 575,
      "🎵": 576,
      "🎶": 577,
      "🎷": 578,
      "🎸": 579,
      "🎹": 580,
      "🎺": 581,
      "🎻": 582,
      "🎼": 583,
      "🏃": 584,
      "🏄": 585,
      "🏅": 586,
      "🏆": 587,
      "🏊": 588,
      "🏋": 589,
      "🏌": 590,
      "🏖": 591,
      "🏚": 592,
      "🏜": 593,
      "🏝": 594,
      "🏟": 595,
      "🏠": 596,
      "🏡": 597,
      "🏢": 598,
      "🏨": 599,
      "🏫": 600,
      "🏳": 601,
      "🏴": 602,
      "🏵": 603,
      "🏻": 604,
      "🏼": 605,
      "🏽": 606,
      "🏾": 607,
      "🏿": 608,
      "🐀": 609,
      "🐁": 610,
      "🐂": 611,
      "🐄": 612,
      "🐅": 613,
      "🐇": 614,
      "🐈": 615,
      "🐊": 616,
      "🐍": 617,
      "🐎": 618,
      "🐏": 619,
      "🐐": 620,
      "🐑": 621,
      "🐒": 622,
      "🐓": 623,
      "🐔": 624,
      "🐕": 625,
      "🐖": 626,
      "🐗": 627,
      "🐝": 628,
      "🐟": 629,
      "🐢": 630,
      "🐣": 631,
      "🐤": 632,
      "🐥": 633,
      "🐦": 634,
      "🐩": 635,
      "🐪": 636,
      "🐮": 637,
      "🐯": 638,
      "🐰": 639,
      "🐱": 640,
      "🐴": 641,
      "🐵": 642,
      "🐶": 643,
      "🐷": 644,
      "🐸": 645,
      "🐹": 646,
      "🐺": 647,
      "🐼": 648,
      "🐽": 649,
      "🐾": 650,
      "👀": 651,
      "👁": 652,
      "👂": 653,
      "👃": 654,
      "👄": 655,
      "👅": 656,
      "👆": 657,
      "👇": 658,
      "👈": 659,
      "👉": 660,
      "👊": 661,
      "👋": 662,
      "👌": 663,
      "👍": 664,
      "👎": 665,
      "👏": 666,
      "👐": 667,
      "👑": 668,
      "👒": 669,
      "👓": 670,
      "👕": 671,
      "👖": 672,
      "👗": 673,
      "👙": 674,
      "👚": 675,
      "👜": 676,
      "👞": 677,
      "👟": 678,
      "👠": 679,
      "👡": 680,
      "👢": 681,
      "👣": 682,
      "👤": 683,
      "👥": 684,
      "👦": 685,
      "👧": 686,
      "👨": 687,
      "👩": 688,
      "👪": 689,
      "👫": 690,
      "👬": 691,
      "👭": 692,
      "👮": 693,
      "👯": 694,
      "👰": 695,
      "👱": 696,
      "👳": 697,
      "👴": 698,
      "👵": 699,
      "👶": 700,
      "👷": 701,
      "👸": 702,
      "👹": 703,
      "👺": 704,
      "👻": 705,
      "👼": 706,
      "👽": 707,
      "👾": 708,
      "👿": 709,
      "💀": 710,
      "💁": 711,
      "💃": 712,
      "💄": 713,
      "💅": 714,
      "💆": 715,
      "💇": 716,
      "💉": 717,
      "💊": 718,
      "💋": 719,
      "💌": 720,
      "💍": 721,
      "💎": 722,
      "💏": 723,
      "💐": 724,
      "💑": 725,
      "💒": 726,
      "💓": 727,
      "💔": 728,
      "💕": 729,
      "💖": 730,
      "💗": 731,
      "💘": 732,
      "💙": 733,
      "💚": 734,
      "💛": 735,
      "💜": 736,
      "💝": 737,
      "💞": 738,
      "💟": 739,
      "💡": 740,
      "💢": 741,
      "💣": 742,
      "💤": 743,
      "💥": 744,
      "💦": 745,
      "💧": 746,
      "💨": 747,
      "💩": 748,
      "💪": 749,
      "💫": 750,
      "💬": 751,
      "💭": 752,
      "💮": 753,
      "💯": 754,
      "💰": 755,
      "💲": 756,
      "💴": 757,
      "💵": 758,
      "💶": 759,
      "💷": 760,
      "💸": 761,
      "💻": 762,
      "💼": 763,
      "📌": 764,
      "📍": 765,
      "📖": 766,
      "📚": 767,
      "📞": 768,
      "📢": 769,
      "📣": 770,
      "📱": 771,
      "📲": 772,
      "📷": 773,
      "📸": 774,
      "📹": 775,
      "📺": 776,
      "📽": 777,
      "📿": 778,
      "🔊": 779,
      "🔐": 780,
      "🔔": 781,
      "🔙": 782,
      "🔚": 783,
      "🔜": 784,
      "🔝": 785,
      "🔞": 786,
      "🔥": 787,
      "🔨": 788,
      "🔪": 789,
      "🔫": 790,
      "🔬": 791,
      "🔮": 792,
      "🔯": 793,
      "🔰": 794,
      "🔱": 795,
      "🔴": 796,
      "🔵": 797,
      "🕊": 798,
      "🕋": 799,
      "🕌": 800,
      "🕯": 801,
      "🕵": 802,
      "🕶": 803,
      "🕷": 804,
      "🕺": 805,
      "🖇": 806,
      "🖐": 807,
      "🖑": 808,
      "🖒": 809,
      "🖓": 810,
      "🖕": 811,
      "🖖": 812,
      "🖤": 813,
      "🗡": 814,
      "🗣": 815,
      "🗼": 816,
      "🗽": 817,
      "🗿": 818,
      "😀": 819,
      "😁": 820,
      "😂": 821,
      "😃": 822,
      "😄": 823,
      "😅": 824,
      "😆": 825,
      "😇": 826,
      "😈": 827,
      "😉": 828,
      "😊": 829,
      "😋": 830,
      "😌": 831,
      "😍": 832,
      "😎": 833,
      "😏": 834,
      "😐": 835,
      "😑": 836,
      "😒": 837,
      "😓": 838,
      "😔": 839,
      "😕": 840,
      "😖": 841,
      "😗": 842,
      "😘": 843,
      "😙": 844,
      "😚": 845,
      "😛": 846,
      "😜": 847,
      "😝": 848,
      "😞": 849,
      "😟": 850,
      "😠": 851,
      "😡": 852,
      "😢": 853,
      "😣": 854,
      "😤": 855,
      "😥": 856,
      "😦": 857,
      "😧": 858,
      "😨": 859,
      "😩": 860,
      "😪": 861,
      "😫": 862,
      "😬": 863,
      "😭": 864,
      "😮": 865,
      "😯": 866,
      "😰": 867,
      "😱": 868,
      "😲": 869,
      "😳": 870,
      "😴": 871,
      "😵": 872,
      "😶": 873,
      "😷": 874,
      "😸": 875,
      "😹": 876,
      "😺": 877,
      "😻": 878,
      "😼": 879,
      "😽": 880,
      "😾": 881,
      "😿": 882,
      "🙀": 883,
      "🙁": 884,
      "🙂": 885,
      "🙃": 886,
      "🙄": 887,
      "🙅": 888,
      "🙆": 889,
      "🙇": 890,
      "🙈": 891,
      "🙉": 892,
      "🙊": 893,
      "🙋": 894,
      "🙌": 895,
      "🙍": 896,
      "🙎": 897,
      "🙏": 898,
      "🚀": 899,
      "🚌": 900,
      "🚍": 901,
      "🚔": 902,
      "🚗": 903,
      "🚘": 904,
      "🚨": 905,
      "🚩": 906,
      "🚫": 907,
      "🚬": 908,
      "🚮": 909,
      "🚰": 910,
      "🚲": 911,
      "🚴": 912,
      "🚶": 913,
      "🚽": 914,
      "🚾": 915,
      "🛍": 916,
      "🛎": 917,
      "🛑": 918,
      "🛫": 919,
      "🤌": 920,
      "🤍": 921,
      "🤎": 922,
      "🤐": 923,
      "🤑": 924,
      "🤒": 925,
      "🤓": 926,
      "🤔": 927,
      "🤕": 928,
      "🤖": 929,
      "🤗": 930,
      "🤘": 931,
      "🤙": 932,
      "🤚": 933,
      "🤛": 934,
      "🤜": 935,
      "🤝": 936,
      "🤞": 937,
      "🤟": 938,
      "🤠": 939,
      "🤡": 940,
      "🤢": 941,
      "🤣": 942,
      "🤤": 943,
      "🤥": 944,
      "🤦": 945,
      "🤧": 946,
      "🤨": 947,
      "🤩": 948,
      "🤪": 949,
      "🤫": 950,
      "🤬": 951,
      "🤭": 952,
      "🤮": 953,
      "🤯": 954,
      "🤰": 955,
      "🤱": 956,
      "🤲": 957,
      "🤳": 958,
      "🤴": 959,
      "🤵": 960,
      "🤷": 961,
      "🤸": 962,
      "🥀": 963,
      "🥁": 964,
      "🥂": 965,
      "🥇": 966,
      "🥊": 967,
      "🥑": 968,
      "🥒": 969,
      "🥔": 970,
      "🥕": 971,
      "🥖": 972,
      "🥛": 973,
      "🥝": 974,
      "🥦": 975,
      "🥭": 976,
      "🥰": 977,
      "🥱": 978,
      "🥲": 979,
      "🥳": 980,
      "🥴": 981,
      "🥵": 982,
      "🥶": 983,
      "🥺": 984,
      "🦁": 985,
      "🦄": 986,
      "🦅": 987,
      "🦊": 988,
      "🦋": 989,
      "🦍": 990,
      "🦓": 991,
      "🦠": 992,
      "🦺": 993,
      "🦾": 994,
      "🧁": 995,
      "🧏": 996,
      "🧐": 997,
      "🧑": 998,
      "🧕": 999,
      "🧚": 1000,
      "🧟": 1001,
      "🧠": 1002,
      "🧡": 1003,
      "🧨": 1004,
      "🧸": 1005,
      "🧿": 1006,
      "##n": 1007,
      "##w": 1008,
      "##a": 1009,
      "##r": 1010,
      "##💖": 1011,
      "##👍": 1012,
      "##❤": 1013,
      "##😍": 1014,
      "##☺": 1015,
      "##l": 1016,
      "##m": 1017,
      "##e": 1018,
      "##u": 1019,
      "##i": 1020,
      "##o": 1021,
      "##t": 1022,
      "##g": 1023,
      "##k": 1024,
      "##s": 1025,
      "##h": 1026,
      "##y": 1027,
      "##3": 1028,
      "##🤲": 1029,
      "##b": 1030,
      "##x": 1031,
      "##j": 1032,
      "##🤔": 1033,
      "##🤫": 1034,
      "##خ": 1035,
      "##ت": 1036,
      "##ل": 1037,
      "##ص": 1038,
      "##9": 1039,
      "##😊": 1040,
      "##😅": 1041,
      "##🏻": 1042,
      "##♀": 1043,
      "##🤦": 1044,
      "##f": 1045,
      "##7": 1046,
      "##🙂": 1047,
      "##d": 1048,
      "##ع": 1049,
      "##ي": 1050,
      "##و": 1051,
      "##ا": 1052,
      "##د": 1053,
      "##ب": 1054,
      "##ح": 1055,
      "##ة": 1056,
      "##c": 1057,
      "##♥": 1058,
      "##س": 1059,
      "##ط": 1060,
      "##ى": 1061,
      "##😘": 1062,
      "##v": 1063,
      "##z": 1064,
      "##ش": 1065,
      "##ۃ": 1066,
      "##ر": 1067,
      "##ن": 1068,
      "##💙": 1069,
      "##💚": 1070,
      "##💛": 1071,
      "##💜": 1072,
      "##💓": 1073,
      "##😇": 1074,
      "##👆": 1075,
      "##👀": 1076,
      "##🇩": 1077,
      "##🇿": 1078,
      "##م": 1079,
      "##😭": 1080,
      "##p": 1081,
      "##0": 1082,
      "##ق": 1083,
      "##💗": 1084,
      "##ج": 1085,
      "##ض": 1086,
      "##q": 1087,
      "##🌪": 1088,
      "##⚡": 1089,
      "##🤣": 1090,
      "##😂": 1091,
      "##💪": 1092,
      "##5": 1093,
      "##ف": 1094,
      "##2": 1095,
      "##😜": 1096,
      "##ه": 1097,
      "##ك": 1098,
      "##غ": 1099,
      "##🥊": 1100,
      "##🏆": 1101,
      "##🥇": 1102,
      "##👎": 1103,
      "##😔": 1104,
      "##😏": 1105,
      "##💕": 1106,
      "##👌": 1107,
      "##🙏": 1108,
      "##😎": 1109,
      "##🇸": 1110,
      "##🇺": 1111,
      "##🇲": 1112,
      "##🇦": 1113,
      "##🇮": 1114,
      "##🇱": 1115,
      "##1": 1116,
      "##🎁": 1117,
      "##🎈": 1118,
      "##🎉": 1119,
      "##😚": 1120,
      "##🇪": 1121,
      "##😋": 1122,
      "##💋": 1123,
      "##🥰": 1124,
      "##👇": 1125,
      "##👏": 1126,
      "##🇵": 1127,
      "##🙃": 1128,
      "##🤐": 1129,
      "##🙄": 1130,
      "##😆": 1131,
      "##ı": 1132,
      "##🔥": 1133,
      "##4": 1134,
      "##8": 1135,
      "##😢": 1136,
      "##💞": 1137,
      "##👽": 1138,
      "##😄": 1139,
      "##🥺": 1140,
      "##☹": 1141,
      "##😃": 1142,
      "##♡": 1143,
      "##⭐": 1144,
      "##🔔": 1145,
      "##✌": 1146,
      "##ز": 1147,
      "##6": 1148,
      "##😩": 1149,
      "##🤗": 1150,
      "##ﺠ": 1151,
      "##ﻌ": 1152,
      "##ﻠ": 1153,
      "##ﻚ": 1154,
      "##😠": 1155,
      "##æ": 1156,
      "##😥": 1157,
      "##ذ": 1158,
      "##😹": 1159,
      "##👄": 1160,
      "##💔": 1161,
      "##😀": 1162,
      "##😉": 1163,
      "##😮": 1164,
      "##☝": 1165,
      "##💯": 1166,
      "##🌹": 1167,
      "##🤍": 1168,
      "##✔": 1169,
      "##😧": 1170,
      "##💝": 1171,
      "##😁": 1172,
      "##🤭": 1173,
      "##❣": 1174,
      "##ث": 1175,
      "##🍰": 1176,
      "##🎂": 1177,
      "##🤯": 1178,
      "##😈": 1179,
      "##🤕": 1180,
      "##😑": 1181,
      "##🖕": 1182,
      "##🌸": 1183,
      "##🏵": 1184,
      "##ø": 1185,
      "##😡": 1186,
      "##🙋": 1187,
      "##👈": 1188,
      "##💮": 1189,
      "##🏾": 1190,
      "##⚘": 1191,
      "##🏼": 1192,
      "##ظ": 1193,
      "##🦠": 1194,
      "##🤤": 1195,
      "##ɪ": 1196,
      "##ᴀ": 1197,
      "##ʟ": 1198,
      "##🐓": 1199,
      "##🐔": 1200,
      "##⃣": 1201,
      "##✊": 1202,
      "##🖤": 1203,
      "##🕺": 1204,
      "##🙈": 1205,
      "##🇫": 1206,
      "##🇷": 1207,
      "##👊": 1208,
      "##🙌": 1209,
      "##🥳": 1210,
      "##👨": 1211,
      "##👉": 1212,
      "##🌷": 1213,
      "##گ": 1214,
      "##🚫": 1215,
      "##🙁": 1216,
      "##😻": 1217,
      "##🤩": 1218,
      "##😷": 1219,
      "##💩": 1220,
      "##👑": 1221,
      "##👻": 1222,
      "##🖒": 1223,
      "##🧐": 1224,
      "##🤜": 1225,
      "##🤛": 1226,
      "##👸": 1227,
      "##😳": 1228,
      "##😙": 1229,
      "##♂": 1230,
      "##😒": 1231,
      "##☆": 1232,
      "##🏝": 1233,
      "##🦓": 1234,
      "##😓": 1235,
      "##🏽": 1236,
      "##🇧": 1237,
      "##💣": 1238,
      "##а": 1239,
      "##😟": 1240,
      "##🇨": 1241,
      "##🍋": 1242,
      "##😣": 1243,
      "##🧠": 1244,
      "##💐": 1245,
      "##😐": 1246,
      "##😝": 1247,
      "##🎀": 1248,
      "##💎": 1249,
      "##😞": 1250,
      "##ی": 1251,
      "##ک": 1252,
      "##🌼": 1253,
      "##🌻": 1254,
      "##☞": 1255,
      "##٠": 1256,
      "##٩": 1257,
      "##🤝": 1258,
      "##☀": 1259,
      "##👧": 1260,
      "##🦍": 1261,
      "##🏳": 1262,
      "##🌈": 1263,
      "##😬": 1264,
      "##😯": 1265,
      "##😱": 1266,
      "##🥵": 1267,
      "##😕": 1268,
      "##🤬": 1269,
      "##🐟": 1270,
      "##🦅": 1271,
      "##😗": 1272,
      "##👶": 1273,
      "##🇰": 1274,
      "##ـ": 1275,
      "##🤧": 1276,
      "##🥴": 1277,
      "##🇬": 1278,
      "##ᅡ": 1279,
      "##ᆫ": 1280,
      "##💃": 1281,
      "##🐕": 1282,
      "##👴": 1283,
      "##👵": 1284,
      "##●": 1285,
      "##■": 1286,
      "##🇳": 1287,
      "##🍬": 1288,
      "##🌺": 1289,
      "##ء": 1290,
      "##🥲": 1291,
      "##💀": 1292,
      "##👿": 1293,
      "##👹": 1294,
      "##👺": 1295,
      "##😌": 1296,
      "##✨": 1297,
      "##ﺎ": 1298,
      "##ﻟ": 1299,
      "##ﻜ": 1300,
      "##ﻮ": 1301,
      "##ﻣ": 1302,
      "##ﺒ": 1303,
      "##ﻲ": 1304,
      "##💍": 1305,
      "##🇶": 1306,
      "##🤵": 1307,
      "##✋": 1308,
      "##٦": 1309,
      "##💟": 1310,
      "##🙆": 1311,
      "##€": 1312,
      "##🤨": 1313,
      "##💁": 1314,
      "##🤙": 1315,
      "##🤮": 1316,
      "##🍭": 1317,
      "##🍹": 1318,
      "##👩": 1319,
      "##😛": 1320,
      "##🎩": 1321,
      "##🥀": 1322,
      "##🦋": 1323,
      "##🍈": 1324,
      "##🍉": 1325,
      "##🍊": 1326,
      "##🍌": 1327,
      "##🍍": 1328,
      "##🥭": 1329,
      "##🍏": 1330,
      "##🍐": 1331,
      "##🍑": 1332,
      "##🍒": 1333,
      "##🍓": 1334,
      "##🥝": 1335,
      "##🍅": 1336,
      "##🥑": 1337,
      "##🍆": 1338,
      "##🥔": 1339,
      "##🥕": 1340,
      "##🌽": 1341,
      "##🌶": 1342,
      "##🥒": 1343,
      "##🥦": 1344,
      "##🍞": 1345,
      "##🥖": 1346,
      "##🍖": 1347,
      "##🍗": 1348,
      "##🍔": 1349,
      "##🍟": 1350,
      "##🍕": 1351,
      "##🌮": 1352,
      "##🍳": 1353,
      "##🍲": 1354,
      "##🍜": 1355,
      "##🍠": 1356,
      "##🍡": 1357,
      "##🍧": 1358,
      "##🍨": 1359,
      "##🍩": 1360,
      "##🍪": 1361,
      "##🧁": 1362,
      "##🍫": 1363,
      "##🍯": 1364,
      "##🍼": 1365,
      "##😖": 1366,
      "##💘": 1367,
      "##🧡": 1368,
      "##ə": 1369,
      "##ﺘ": 1370,
      "##ﻭ": 1371,
      "##ﺟ": 1372,
      "##ﻬ": 1373,
      "##👐": 1374,
      "##ᅳ": 1375,
      "##ᄋ": 1376,
      "##ᅵ": 1377,
      "##♓": 1378,
      "##♤": 1379,
      "##ﺴ": 1380,
      "##ﻢ": 1381,
      "##е": 1382,
      "##🇹": 1383,
      "##🤪": 1384,
      "##🍀": 1385,
      "##🐶": 1386,
      "##🔪": 1387,
      "##👣": 1388,
      "##в": 1389,
      "##⁶": 1390,
      "##😤": 1391,
      "##🕋": 1392,
      "##٢": 1393,
      "##💥": 1394,
      "##🎊": 1395,
      "##💌": 1396,
      "##œ": 1397,
      "##🙀": 1398,
      "##★": 1399,
      "##🏅": 1400,
      "##💑": 1401,
      "##🤰": 1402,
      "##😦": 1403,
      "##💇": 1404,
      "##💅": 1405,
      "##👙": 1406,
      "##💶": 1407,
      "##🔬": 1408,
      "##🎃": 1409,
      "##⁴": 1410,
      "##🤢": 1411,
      "##🌍": 1412,
      "##⚠": 1413,
      "##ι": 1414,
      "##🧑": 1415,
      "##🌚": 1416,
      "##🌴": 1417,
      "##🚶": 1418,
      "##🎹": 1419,
      "##⬇": 1420,
      "##😼": 1421,
      "##🔮": 1422,
      "##💦": 1423,
      "##đ": 1424,
      "##🐥": 1425,
      "##🐤": 1426,
      "##🐣": 1427,
      "##✓": 1428,
      "##👋": 1429,
      "##↗": 1430,
      "##✍": 1431,
      "##🕊": 1432,
      "##🤷": 1433,
      "##🎶": 1434,
      "##🧿": 1435,
      "##🆘": 1436,
      "##🎧": 1437,
      "##⁹": 1438,
      "##🗼": 1439,
      "##🗽": 1440,
      "##🧟": 1441,
      "##🕵": 1442,
      "##🐰": 1443,
      "##🌎": 1444,
      "##👱": 1445,
      "##🎇": 1446,
      "##😶": 1447,
      "##🏿": 1448,
      "##✅": 1449,
      "##🛍": 1450,
      "##🐈": 1451,
      "##🤘": 1452,
      "##☠": 1453,
      "##✈": 1454,
      "##🕷": 1455,
      "##😪": 1456,
      "##🤚": 1457,
      "##ο": 1458,
      "##ρ": 1459,
      "##ε": 1460,
      "##ڤ": 1461,
      "##💫": 1462,
      "##💏": 1463,
      "##😨": 1464,
      "##🦊": 1465,
      "##👁": 1466,
      "##ﺪ": 1467,
      "##°": 1468,
      "##ہ": 1469,
      "##ﻷ": 1470,
      "##ﻋ": 1471,
      "##🛫": 1472,
      "##🏡": 1473,
      "##👰": 1474,
      "##🚬": 1475,
      "##💊": 1476,
      "##🔫": 1477,
      "##💰": 1478,
      "##🌞": 1479,
      "##🇭": 1480,
      "##🇾": 1481,
      "##ﺍ": 1482,
      "##ﻳ": 1483,
      "##ﻤ": 1484,
      "##α": 1485,
      "##ð": 1486,
      "##🏃": 1487,
      "##🌝": 1488,
      "##⚕": 1489,
      "##ﺮ": 1490,
      "##ﺣ": 1491,
      "##ﻞ": 1492,
      "##ﻧ": 1493,
      "##ﻴ": 1494,
      "##🏊": 1495,
      "##😰": 1496,
      "##☄": 1497,
      "##🦁": 1498,
      "##👂": 1499,
      "##🍾": 1500,
      "##🤱": 1501,
      "##ﻻ": 1502,
      "##🤑": 1503,
      "##🌟": 1504,
      "##😴": 1505,
      "##♨": 1506,
      "##🐇": 1507,
      "##ﺤ": 1508,
      "##📱": 1509,
      "##👦": 1510,
      "##😲": 1511,
      "##🍃": 1512,
      "##💄": 1513,
      "##🎮": 1514,
      "##🤎": 1515,
      "##🤓": 1516,
      "##😽": 1517,
      "##🕌": 1518,
      "##😵": 1519,
      "##➡": 1520,
      "##🔊": 1521,
      "##🤟": 1522,
      "##н": 1523,
      "##👾": 1524,
      "##✡": 1525,
      "##🙅": 1526,
      "##🙇": 1527,
      "##🐸": 1528,
      "##✂": 1529,
      "##📍": 1530,
      "##🇴": 1531,
      "##🤸": 1532,
      "##🎬": 1533,
      "##▶": 1534,
      "##👯": 1535,
      "##🤴": 1536,
      "##💨": 1537,
      "##ﺔ": 1538,
      "##🙉": 1539,
      "##🙊": 1540,
      "##🎤": 1541,
      "##💻": 1542,
      "##💵": 1543,
      "##💸": 1544,
      "##🤠": 1545,
      "##🎯": 1546,
      "##²": 1547,
      "##🎅": 1548,
      "##🐒": 1549,
      "##💲": 1550,
      "##🗣": 1551,
      "##🤒": 1552,
      "##🔴": 1553,
      "##⚪": 1554,
      "##¥": 1555,
      "##🇻": 1556,
      "##❎": 1557,
      "##ﺭ": 1558,
      "##📽": 1559,
      "##🤥": 1560,
      "##❌": 1561,
      "##٧": 1562,
      "##١": 1563,
      "##٣": 1564,
      "##٤": 1565,
      "##🖐": 1566,
      "##🔱": 1567,
      "##🐷": 1568,
      "##ھ": 1569,
      "##🧨": 1570,
      "##😫": 1571,
      "##ⵣ": 1572,
      "##ᅮ": 1573,
      "##ᄂ": 1574,
      "##📿": 1575,
      "##🎆": 1576,
      "##🧚": 1577,
      "##🤡": 1578,
      "##🇯": 1579,
      "##🐏": 1580,
      "##👪": 1581,
      "##×": 1582,
      "##🌳": 1583,
      "##🌲": 1584,
      "##🍂": 1585,
      "##🍁": 1586,
      "##💼": 1587,
      "##🥛": 1588,
      "##🐗": 1589,
      "##🇼": 1590,
      "##👬": 1591,
      "##🐽": 1592,
      "##☕": 1593,
      "##ﺩ": 1594,
      "##👃": 1595,
      "##³": 1596,
      "##👫": 1597,
      "##®": 1598,
      "##👒": 1599,
      "##🐼": 1600,
      "##🐐": 1601,
      "##🐵": 1602,
      "##💴": 1603,
      "##💷": 1604,
      "##£": 1605,
      "##🗡": 1606,
      "##🔐": 1607,
      "##₩": 1608,
      "##ڨ": 1609,
      "##🌏": 1610,
      "##🚔": 1611,
      "##👅": 1612,
      "##🐺": 1613,
      "##٨": 1614,
      "##🏜": 1615,
      "##🖇": 1616,
      "##⚽": 1617,
      "##🐦": 1618,
      "##⛔": 1619,
      "##😺": 1620,
      "##ा": 1621,
      "##👼": 1622,
      "##📌": 1623,
      "##📖": 1624,
      "##ᆷ": 1625,
      "##ᄌ": 1626,
      "##ᅥ": 1627,
      "##ᆼ": 1628,
      "##ᄀ": 1629,
      "##🎓": 1630,
      "##🧏": 1631,
      "##👢": 1632,
      "##я": 1633,
      "##🍸": 1634,
      "##☻": 1635,
      "##🔝": 1636,
      "##🆒": 1637,
      "##ᴏ": 1638,
      "##🥂": 1639,
      "##👠": 1640,
      "##ٱ": 1641,
      "##🚨": 1642,
      "##🐖": 1643,
      "##🐮": 1644,
      "##👤": 1645,
      "##😿": 1646,
      "##🤞": 1647,
      "##🏖": 1648,
      "##🔚": 1649,
      "##👖": 1650,
      "##🍺": 1651,
      "##ﻨ": 1652,
      "##🖓": 1653,
      "##🌵": 1654,
      "##🎗": 1655,
      "##🙎": 1656,
      "##🙍": 1657,
      "##🐩": 1658,
      "##🐁": 1659,
      "##🐹": 1660,
      "##👟": 1661,
      "##🔰": 1662,
      "##👞": 1663,
      "##👓": 1664,
      "##👕": 1665,
      "##👗": 1666,
      "##🏢": 1667,
      "##🏠": 1668,
      "##🏨": 1669,
      "##🏫": 1670,
      "##🔙": 1671,
      "##🔜": 1672,
      "##🚮": 1673,
      "##🚰": 1674,
      "##🚩": 1675,
      "##🔞": 1676,
      "##⭕": 1677,
      "##ß": 1678,
      "##😾": 1679,
      "##ⴰ": 1680,
      "##ⵎ": 1681,
      "##ⵍ": 1682,
      "##📹": 1683,
      "##🐊": 1684,
      "##¤": 1685,
      "##🚴": 1686,
      "##ᄒ": 1687,
      "##ᄃ": 1688,
      "##є": 1689,
      "##♧": 1690,
      "##🌿": 1691,
      "##📲": 1692,
      "##ﾟ": 1693,
      "##🎼": 1694,
      "##پ": 1695,
      "##🏴": 1696,
      "##⚰": 1697,
      "##🎄": 1698,
      "##🔯": 1699,
      "##💡": 1700,
      "##🚽": 1701,
      "##⚖": 1702,
      "##™": 1703,
      "##🐂": 1704,
      "##м": 1705,
      "##🌠": 1706,
      "##🥶": 1707,
      "##ݣ": 1708,
      "##ﻔ": 1709,
      "##🦾": 1710,
      "##🐪": 1711,
      "##📷": 1712,
      "##🎥": 1713,
      "##⛓": 1714,
      "##🛑": 1715,
      "##и": 1716,
      "##о": 1717,
      "##👡": 1718,
      "##т": 1719,
      "##া": 1720,
      "##ে": 1721,
      "##⚔": 1722,
      "##🖖": 1723,
      "##☘": 1724,
      "##🌙": 1725,
      "##👜": 1726,
      "##👮": 1727,
      "##🌱": 1728,
      "##ᄅ": 1729,
      "##ﻛ": 1730,
      "##💧": 1731,
      "##📚": 1732,
      "##🍎": 1733,
      "##⁰": 1734,
      "##🐱": 1735,
      "##🤳": 1736,
      "##🔵": 1737,
      "##🚘": 1738,
      "##🍻": 1739,
      "##ᆯ": 1740,
      "##✖": 1741,
      "##র": 1742,
      "##🏄": 1743,
      "##🕶": 1744,
      "##к": 1745,
      "##р": 1746,
      "##с": 1747,
      "##🍇": 1748,
      "##🥁": 1749,
      "##🐎": 1750,
      "##🐑": 1751,
      "##🎷": 1752,
      "##¯": 1753,
      "##ł": 1754,
      "##√": 1755,
      "##🐯": 1756,
      "##🐅": 1757,
      "##🐴": 1758,
      "##🦄": 1759,
      "##🐄": 1760,
      "##🐀": 1761,
      "##🐾": 1762,
      "##🐢": 1763,
      "##🐍": 1764,
      "##🌰": 1765,
      "##💭": 1766,
      "##٥": 1767,
      "##🚀": 1768,
      "##🎸": 1769,
      "##❓": 1770,
      "##🎭": 1771,
      "##ᄆ": 1772,
      "##📺": 1773,
      "##⚫": 1774,
      "##☑": 1775,
      "##ᴻ": 1776,
      "##🌜": 1777,
      "##ッ": 1778,
      "##💉": 1779,
      "##📣": 1780,
      "##📢": 1781,
      "##🧕": 1782,
      "##🗿": 1783,
      "##🌋": 1784,
      "##🛎": 1785,
      "##ʀ": 1786,
      "##ﻦ": 1787,
      "##❄": 1788,
      "##❗": 1789,
      "##🎖": 1790,
      "##💤": 1791,
      "##ﺸ": 1792,
      "##ﻫ": 1793,
      "##ღ": 1794,
      "##ɴ": 1795,
      "##🏋": 1796,
      "##🌌": 1797,
      "##þ": 1798,
      "##🌾": 1799,
      "##ᴇ": 1800,
      "##🌀": 1801,
      "##🧸": 1802,
      "##у": 1803,
      "##´": 1804,
      "##🔨": 1805,
      "##🌅": 1806,
      "##🎵": 1807,
      "##ɟ": 1808,
      "##🏌": 1809,
      "##ﺷ": 1810,
      "##🍷": 1811,
      "##σ": 1812,
      "##←": 1813,
      "##👭": 1814,
      "##÷": 1815,
      "##⃢": 1816,
      "##🏟": 1817,
      "##⬆": 1818,
      "##ﺑ": 1819,
      "##⁵": 1820,
      "##🦺": 1821,
      "##ﺗ": 1822,
      "##ﻪ": 1823,
      "##ﻗ": 1824,
      "##🚗": 1825,
      "##ɐ": 1826,
      "##♦": 1827,
      "##♠": 1828,
      "##🎋": 1829,
      "##🐝": 1830,
      "##¹": 1831,
      "##⁷": 1832,
      "##░": 1833,
      "##💢": 1834,
      "##🇽": 1835,
      "##☢": 1836,
      "##👚": 1837,
      "##👥": 1838,
      "##ⵓ": 1839,
      "##ⵙ": 1840,
      "##➕": 1841,
      "##🎻": 1842,
      "##🤖": 1843,
      "##○": 1844,
      "##ᄇ": 1845,
      "##ᅩ": 1846,
      "##℅": 1847,
      "##🚲": 1848,
      "##💬": 1849,
      "##д": 1850,
      "##ﻘ": 1851,
      "##ᄉ": 1852,
      "##ﻹ": 1853,
      "##ﺕ": 1854,
      "##⁸": 1855,
      "##ے": 1856,
      "##📸": 1857,
      "##🏚": 1858,
      "##ⵉ": 1859,
      "##💒": 1860,
      "##🥱": 1861,
      "##😸": 1862,
      "##ω": 1863,
      "##ʜ": 1864,
      "##☪": 1865,
      "##ﻓ": 1866,
      "##╭": 1867,
      "##ツ": 1868,
      "##🌊": 1869,
      "##♣": 1870,
      "##👳": 1871,
      "##ﻥ": 1872,
      "##ᴍ": 1873,
      "##💆": 1874,
      "##ﻄ": 1875,
      "##𝔸": 1876,
      "##ℝ": 1877,
      "##𝕄": 1878,
      "##𝕐": 1879,
      "##█": 1880,
      "##♪": 1881,
      "##ⵏ": 1882,
      "##◇": 1883,
      "##🖑": 1884,
      "##🎺": 1885,
      "##🤌": 1886,
      "##🚌": 1887,
      "##🚍": 1888,
      "##→": 1889,
      "##ѕ": 1890,
      "##🚾": 1891,
      "##🌃": 1892,
      "##☁": 1893,
      "##👷": 1894,
      "##🕯": 1895,
      "##🌛": 1896,
      "##ﻰ": 1897,
      "##￼": 1898,
      "##📞": 1899,
      "##ｙ": 1900,
      "##╯": 1901,
      "##ｐ": 1902,
      "##ｒ": 1903,
      "##ノ": 1904,
      "##⛅": 1905,
      "##ﮪ": 1906,
      "##ｔ": 1907,
      "##ᴛ": 1908,
      "##ﺃ": 1909,
      "##ｏ": 1910,
      "##𝗦": 1911,
      "##🌗": 1912,
      "##□": 1913,
      "##©": 1914,
      "##𝗧": 1915,
      "##𝗕": 1916,
      "##❶": 1917,
      "##ч": 1918,
      "##┻": 1919,
      "##꒪": 1920,
      "##۞": 1921,
      "##ｆ": 1922,
      "##ha": 1923,
      "##la": 1924,
      "##an": 1925,
      "##li": 1926,
      "##ar": 1927,
      "##ch": 1928,
      "##ak": 1929,
      "##at": 1930,
      "##ah": 1931,
      "##in": 1932,
      "##ya": 1933,
      "##ou": 1934,
      "##ad": 1935,
      "##ti": 1936,
      "##al": 1937,
      "##na": 1938,
      "##om": 1939,
      "##am": 1940,
      "li": 1941,
      "##ir": 1942,
      "##lah": 1943,
      "##ab": 1944,
      "##er": 1945,
      "##ay": 1946,
      "##as": 1947,
      "kh": 1948,
      "##kh": 1949,
      "##ta": 1950,
      "ma": 1951,
      "lah": 1952,
      "##ma": 1953,
      "ch": 1954,
      "##lik": 1955,
      "##on": 1956,
      "wa": 1957,
      "##di": 1958,
      "##ra": 1959,
      "had": 1960,
      "##af": 1961,
      "##it": 1962,
      "##cha": 1963,
      "##aw": 1964,
      "ana": 1965,
      "##en": 1966,
      "##bi": 1967,
      "##ik": 1968,
      "##id": 1969,
      "##a3": 1970,
      "##ol": 1971,
      "3lik": 1972,
      "3la": 1973,
      "##chi": 1974,
      "##es": 1975,
      "##ri": 1976,
      "##ala": 1977,
      "##ba": 1978,
      "fi": 1979,
      "kan": 1980,
      "##wa": 1981,
      "##ek": 1982,
      "m3": 1983,
      "##el": 1984,
      "##gh": 1985,
      "##da": 1986,
      "##ina": 1987,
      "##ser": 1988,
      "##ni": 1989,
      "lik": 1990,
      "akh": 1991,
      "user": 1992,
      "alah": 1993,
      "di": 1994,
      "ou": 1995,
      "##or": 1996,
      "##oya": 1997,
      "##aj": 1998,
      "##aha": 1999,
      "dya": 2000,
      "kha": 2001,
      "##bar": 2002,
      "ba": 2003,
      "kat": 2004,
      "cha": 2005,
      "al": 2006,
      "##ro": 2007,
      "kay": 2008,
      "mn": 2009,
      "##is": 2010,
      "la": 2011,
      "##hom": 2012,
      "ال": 2013,
      "##kha": 2014,
      "##kom": 2015,
      "##9a": 2016,
      "mo": 2017,
      "chi": 2018,
      "lm": 2019,
      "dyal": 2020,
      "##ed": 2021,
      "gh": 2022,
      "##abi": 2023,
      "in": 2024,
      "##iya": 2025,
      "to": 2026,
      "rah": 2027,
      "##lo": 2028,
      "##zaf": 2029,
      "bi": 2030,
      "khoya": 2031,
      "##ali": 2032,
      "khti": 2033,
      "##ok": 2034,
      "man": 2035,
      "##bark": 2036,
      "mak": 2037,
      "##im": 2038,
      "##fi": 2039,
      "##em": 2040,
      "mat": 2041,
      "rak": 2042,
      "##ana": 2043,
      "##kin": 2044,
      "tbark": 2045,
      "##do": 2046,
      "##et": 2047,
      "dir": 2048,
      "you": 2049,
      "l3": 2050,
      "##to": 2051,
      "3li": 2052,
      "##il": 2053,
      "hta": 2054,
      "##re": 2055,
      "##ari": 2056,
      "##ati": 2057,
      "akhti": 2058,
      "##alam": 2059,
      "an": 2060,
      "##ine": 2061,
      "##lh": 2062,
      "##ini": 2063,
      "##hal": 2064,
      "##amal": 2065,
      "ya": 2066,
      "ah": 2067,
      "m3a": 2068,
      "ila": 2069,
      "top": 2070,
      "3an": 2071,
      "##ide": 2072,
      "dar": 2073,
      "##az": 2074,
      "kol": 2075,
      "##dir": 2076,
      "ki": 2077,
      "th": 2078,
      "##ram": 2079,
      "##ham": 2080,
      "##adi": 2081,
      "gha": 2082,
      "lb": 2083,
      "##a9": 2084,
      "##ji": 2085,
      "yar": 2086,
      "##os": 2087,
      "mar": 2088,
      "##ani": 2089,
      "##oum": 2090,
      "ab": 2091,
      "nas": 2092,
      "nta": 2093,
      "ik": 2094,
      "##eb": 2095,
      "bzaf": 2096,
      "dima": 2097,
      "am": 2098,
      "##iz": 2099,
      "##ot": 2100,
      "##st": 2101,
      "##fa": 2102,
      "##akh": 2103,
      "ay": 2104,
      "##had": 2105,
      "wal": 2106,
      "##le": 2107,
      "rabi": 2108,
      "as": 2109,
      "wach": 2110,
      "ma3": 2111,
      "be": 2112,
      "##ideo": 2113,
      "salam": 2114,
      "jamal": 2115,
      "m3ak": 2116,
      "##gha": 2117,
      "ta": 2118,
      "zw": 2119,
      "##chalah": 2120,
      "##ran": 2121,
      "is": 2122,
      "##lm": 2123,
      "##oma": 2124,
      "##man": 2125,
      "##3i": 2126,
      "##ara": 2127,
      "lh": 2128,
      "##ouya": 2129,
      "##dak": 2130,
      "##ada": 2131,
      "##te": 2132,
      "ms": 2133,
      "##san": 2134,
      "##of": 2135,
      "le": 2136,
      "##sa": 2137,
      "##aba": 2138,
      "nt": 2139,
      "bla": 2140,
      "bach": 2141,
      "ghir": 2142,
      "ho": 2143,
      "aw": 2144,
      "##ia": 2145,
      "de": 2146,
      "3af": 2147,
      "bra": 2148,
      "raj": 2149,
      "##lid": 2150,
      "##lk": 2151,
      "mab": 2152,
      "video": 2153,
      "##ve": 2154,
      "##hi": 2155,
      "me": 2156,
      "##kon": 2157,
      "##9i": 2158,
      "ras": 2159,
      "wlah": 2160,
      "##vo": 2161,
      "wah": 2162,
      "3n": 2163,
      "##si": 2164,
      "wlh": 2165,
      "##far": 2166,
      "wa3": 2167,
      "wala": 2168,
      "machi": 2169,
      "l9": 2170,
      "bn": 2171,
      "wla": 2172,
      "nti": 2173,
      "we": 2174,
      "##ال": 2175,
      "##3a": 2176,
      "bs": 2177,
      "ra": 2178,
      "##yat": 2179,
      "##oun": 2180,
      "3afak": 2181,
      "##od": 2182,
      "##lam": 2183,
      "dak": 2184,
      "##one": 2185,
      "bgh": 2186,
      "##ja": 2187,
      "##tk": 2188,
      "re": 2189,
      "##dk": 2190,
      "##dar": 2191,
      "has": 2192,
      "##3ti": 2193,
      "ikram": 2194,
      "bravo": 2195,
      "fr": 2196,
      "ni": 2197,
      "##ouk": 2198,
      "##har": 2199,
      "kant": 2200,
      "##no": 2201,
      "##lak": 2202,
      "dial": 2203,
      "##biba": 2204,
      "tbarklah": 2205,
      "mom": 2206,
      "fl": 2207,
      "##❤❤": 2208,
      "tab": 2209,
      "lw": 2210,
      "##tar": 2211,
      "men": 2212,
      "lk": 2213,
      "##alah": 2214,
      "##ft": 2215,
      "##ila": 2216,
      "mam": 2217,
      "##oli": 2218,
      "si": 2219,
      "lay": 2220,
      "##aja": 2221,
      "khouya": 2222,
      "the": 2223,
      "##bo": 2224,
      "##ck": 2225,
      "om": 2226,
      "##be": 2227,
      "##ira": 2228,
      "##ce": 2229,
      "##ge": 2230,
      "hit": 2231,
      "mas": 2232,
      "ham": 2233,
      "##oni": 2234,
      "dr": 2235,
      "##tak": 2236,
      "lina": 2237,
      "lkh": 2238,
      "fih": 2239,
      "tb": 2240,
      "hna": 2241,
      "3likom": 2242,
      "hadi": 2243,
      "bz": 2244,
      "howa": 2245,
      "bhal": 2246,
      "ach": 2247,
      "br": 2248,
      "##aka": 2249,
      "lo": 2250,
      "##fo": 2251,
      "##fik": 2252,
      "mr": 2253,
      "com": 2254,
      "liya": 2255,
      "tah": 2256,
      "##tu": 2257,
      "el": 2258,
      "ha": 2259,
      "##our": 2260,
      "##mo": 2261,
      "ok": 2262,
      "##se": 2263,
      "##anat": 2264,
      "hi": 2265,
      "##mi": 2266,
      "##che": 2267,
      "fiha": 2268,
      "##jb": 2269,
      "kon": 2270,
      "kn": 2271,
      "bro": 2272,
      "##rk": 2273,
      "##hf": 2274,
      "akhoya": 2275,
      "les": 2276,
      "khas": 2277,
      "yarbi": 2278,
      "hada": 2279,
      "##نا": 2280,
      "maj": 2281,
      "fik": 2282,
      "te": 2283,
      "##🇲🇦": 2284,
      "momkin": 2285,
      "##3aw": 2286,
      "##ent": 2287,
      "kam": 2288,
      "##jo": 2289,
      "fa": 2290,
      "##ona": 2291,
      "walah": 2292,
      "##oul": 2293,
      "##ata": 2294,
      "##tha": 2295,
      "fin": 2296,
      "##de": 2297,
      "kolchi": 2298,
      "##ous": 2299,
      "##adir": 2300,
      "saha": 2301,
      "sir": 2302,
      "lha": 2303,
      "ayman": 2304,
      "##fr": 2305,
      "##iti": 2306,
      "bzf": 2307,
      "##hm": 2308,
      "##ziz": 2309,
      "##7al": 2310,
      "on": 2311,
      "##ib": 2312,
      "lma": 2313,
      "mer": 2314,
      "##likom": 2315,
      "##ama": 2316,
      "may": 2317,
      "##ow": 2318,
      "wh": 2319,
      "tw": 2320,
      "##tini": 2321,
      "hiya": 2322,
      "##ant": 2323,
      "kayn": 2324,
      "##ci": 2325,
      "khir": 2326,
      "##wi": 2327,
      "mz": 2328,
      "##rak": 2329,
      "##ing": 2330,
      "##alima": 2331,
      "##ghri": 2332,
      "haja": 2333,
      "##ml": 2334,
      "wak": 2335,
      "##gol": 2336,
      "##iha": 2337,
      "##chof": 2338,
      "min": 2339,
      "lih": 2340,
      "lwa": 2341,
      "##eti": 2342,
      "##out": 2343,
      "inchalah": 2344,
      "tha": 2345,
      "zwin": 2346,
      "hadchi": 2347,
      "##lin": 2348,
      "mal": 2349,
      "bar": 2350,
      "do": 2351,
      "##ki": 2352,
      "day": 2353,
      "dik": 2354,
      "ta3": 2355,
      "wl": 2356,
      "##7a": 2357,
      "ri": 2358,
      "sar": 2359,
      "tbarkalah": 2360,
      "khay": 2361,
      "##ات": 2362,
      "so": 2363,
      "wi": 2364,
      "sm": 2365,
      "daba": 2366,
      "##ty": 2367,
      "ts": 2368,
      "##ef": 2369,
      "walakin": 2370,
      "##dha": 2371,
      "bl": 2372,
      "like": 2373,
      "##eh": 2374,
      "##okran": 2375,
      "en": 2376,
      "bghit": 2377,
      "was": 2378,
      "10": 2379,
      "bik": 2380,
      "ala": 2381,
      "m3aya": 2382,
      "sah": 2383,
      "sal": 2384,
      "##dr": 2385,
      "pl": 2386,
      "ys": 2387,
      "##ire": 2388,
      "##chafik": 2389,
      "##ai": 2390,
      "##khali": 2391,
      "tan": 2392,
      "dyalk": 2393,
      "lf": 2394,
      "##ami": 2395,
      "tay": 2396,
      "tr": 2397,
      "ns": 2398,
      "##ان": 2399,
      "wahd": 2400,
      "and": 2401,
      "##yan": 2402,
      "##ka": 2403,
      "walo": 2404,
      "##لي": 2405,
      "slm": 2406,
      "ghadi": 2407,
      "zwina": 2408,
      "##ur": 2409,
      "t3": 2410,
      "3lih": 2411,
      "it": 2412,
      "##lat": 2413,
      "##lan": 2414,
      "l7": 2415,
      "##ue": 2416,
      "3andi": 2417,
      "##ate": 2418,
      "abone": 2419,
      "##3tik": 2420,
      "mt": 2421,
      "halima": 2422,
      "##oh": 2423,
      "bes": 2424,
      "##ite": 2425,
      "##xi": 2426,
      "##oc": 2427,
      "##haha": 2428,
      "kt": 2429,
      "majda": 2430,
      "ahsan": 2431,
      "##afi": 2432,
      "sa": 2433,
      "3ad": 2434,
      "dyali": 2435,
      "olah": 2436,
      "##hk": 2437,
      "se": 2438,
      "##rok": 2439,
      "3a": 2440,
      "##cham": 2441,
      "hbiba": 2442,
      "gal": 2443,
      "for": 2444,
      "lj": 2445,
      "diri": 2446,
      "bas": 2447,
      "macha": 2448,
      "##br": 2449,
      "bay": 2450,
      "##ري": 2451,
      "##تي": 2452,
      "##sta": 2453,
      "##dam": 2454,
      "في": 2455,
      "chokran": 2456,
      "##dik": 2457,
      "3ziz": 2458,
      "##دي": 2459,
      "et": 2460,
      "##bti": 2461,
      "mad": 2462,
      "ga3": 2463,
      "fe": 2464,
      "wakha": 2465,
      "3lach": 2466,
      "##ida": 2467,
      "b3": 2468,
      "ne": 2469,
      "he": 2470,
      "fati": 2471,
      "##ho": 2472,
      "liha": 2473,
      "##um": 2474,
      "##ban": 2475,
      "youtu": 2476,
      "##khir": 2477,
      "##tek": 2478,
      "of": 2479,
      "##zal": 2480,
      "vi": 2481,
      "ali": 2482,
      "##chafi": 2483,
      "##khli": 2484,
      "no": 2485,
      "##hak": 2486,
      "ar": 2487,
      "hadak": 2488,
      "##dek": 2489,
      "##dio": 2490,
      "##9at": 2491,
      "lv": 2492,
      "nari": 2493,
      "##nat": 2494,
      "kb": 2495,
      "ghi": 2496,
      "##ghi": 2497,
      "##ها": 2498,
      "##raf": 2499,
      "ndir": 2500,
      "3e": 2501,
      "##sh": 2502,
      "ot": 2503,
      "##🇲🇦🇲🇦": 2504,
      "##lay": 2505,
      "##fak": 2506,
      "bazaf": 2507,
      "nada": 2508,
      "##را": 2509,
      "##ma9": 2510,
      "ak": 2511,
      "makay": 2512,
      "##ane": 2513,
      "far": 2514,
      "ja": 2515,
      "##eri": 2516,
      "rbi": 2517,
      "ye": 2518,
      "##zala": 2519,
      "nhar": 2520,
      "t9": 2521,
      "##3o": 2522,
      "da": 2523,
      "ban": 2524,
      "es": 2525,
      "##ahk": 2526,
      "bk": 2527,
      "jaw": 2528,
      "##za": 2529,
      "ka": 2530,
      "3liha": 2531,
      "ya3": 2532,
      "niz": 2533,
      "##dou": 2534,
      "##elah": 2535,
      "##mal": 2536,
      "jat": 2537,
      "##mna": 2538,
      "##rah": 2539,
      "lab": 2540,
      "mli": 2541,
      "##لا": 2542,
      "at": 2543,
      "db": 2544,
      "##au": 2545,
      "nizar": 2546,
      "love": 2547,
      "hadik": 2548,
      "wa3r": 2549,
      "20": 2550,
      "##ele": 2551,
      "hicham": 2552,
      "##hach": 2553,
      "okh": 2554,
      "chw": 2555,
      "3am": 2556,
      "bsah": 2557,
      "saraha": 2558,
      "lkha": 2559,
      "##rb": 2560,
      "plz": 2561,
      "##lad": 2562,
      "radi": 2563,
      "الم": 2564,
      "su": 2565,
      "##hta": 2566,
      "##oura": 2567,
      "##ouma": 2568,
      "3lina": 2569,
      "ba3": 2570,
      "tal": 2571,
      "##9o": 2572,
      "##ghrib": 2573,
      "##ili": 2574,
      "ly": 2575,
      "il": 2576,
      "rani": 2577,
      "amin": 2578,
      "ro": 2579,
      "kad": 2580,
      "dy": 2581,
      "##ime": 2582,
      "con": 2583,
      "slam": 2584,
      "sali": 2585,
      "mk": 2586,
      "##ين": 2587,
      "kif": 2588,
      "likom": 2589,
      "machalah": 2590,
      "##9t": 2591,
      "raki": 2592,
      "rj": 2593,
      "alik": 2594,
      "##wat": 2595,
      "lia": 2596,
      "##raj": 2597,
      "من": 2598,
      "tat": 2599,
      "##iy": 2600,
      "bezaf": 2601,
      "##b9a": 2602,
      "3ndi": 2603,
      "##tik": 2604,
      "mou": 2605,
      "kat3": 2606,
      "back": 2607,
      "hasan": 2608,
      "##kina": 2609,
      "ola": 2610,
      "sab": 2611,
      "yah": 2612,
      "##ase": 2613,
      "mais": 2614,
      "tk": 2615,
      "kho": 2616,
      "a3": 2617,
      "tam": 2618,
      "bd": 2619,
      "##tah": 2620,
      "##9aw": 2621,
      "##l3": 2622,
      "##end": 2623,
      "##un": 2624,
      "os": 2625,
      "##hab": 2626,
      "taw": 2627,
      "amine": 2628,
      "##rf": 2629,
      "##tch": 2630,
      "rir": 2631,
      "rab": 2632,
      "##بي": 2633,
      "##jab": 2634,
      "##lidat": 2635,
      "3ala": 2636,
      "ama": 2637,
      "##e3": 2638,
      "sa3": 2639,
      "##han": 2640,
      "yas": 2641,
      "3ar": 2642,
      "merci": 2643,
      "9anat": 2644,
      "##bal": 2645,
      "fhad": 2646,
      "bnad": 2647,
      "m3ah": 2648,
      "##haf": 2649,
      "##rouk": 2650,
      "##chk": 2651,
      "3and": 2652,
      "##ouf": 2653,
      "chan": 2654,
      "##op": 2655,
      "##char": 2656,
      "ad": 2657,
      "##hdi": 2658,
      "##ma3": 2659,
      "im": 2660,
      "##jib": 2661,
      "##ار": 2662,
      "mamak": 2663,
      "wali": 2664,
      "##rj": 2665,
      "yk": 2666,
      "lmo": 2667,
      "3aw": 2668,
      "der": 2669,
      "9al": 2670,
      "tf": 2671,
      "hal": 2672,
      "yt": 2673,
      "##raz": 2674,
      "##ito": 2675,
      "khali": 2676,
      "haka": 2677,
      "##sal": 2678,
      "mu": 2679,
      "##mar": 2680,
      "3ay": 2681,
      "tu": 2682,
      "are": 2683,
      "##hba": 2684,
      "mah": 2685,
      "n3": 2686,
      "##اي": 2687,
      "yakh": 2688,
      "la3": 2689,
      "##der": 2690,
      "##ga": 2691,
      "sh": 2692,
      "wis": 2693,
      "incha": 2694,
      "bon": 2695,
      "st": 2696,
      "##lek": 2697,
      "##bat": 2698,
      "haha": 2699,
      "##rba": 2700,
      "ko": 2701,
      "اله": 2702,
      "##lti": 2703,
      "yarabi": 2704,
      "wa7": 2705,
      "che": 2706,
      "rebi": 2707,
      "##ere": 2708,
      "##zi": 2709,
      "je": 2710,
      "hak": 2711,
      "mes": 2712,
      "##lb": 2713,
      "id": 2714,
      "##hat": 2715,
      "raha": 2716,
      "##ون": 2717,
      "d3i": 2718,
      "##3ak": 2719,
      "hch": 2720,
      "my": 2721,
      "sen": 2722,
      "##rin": 2723,
      "sam": 2724,
      "hata": 2725,
      "homa": 2726,
      "mb": 2727,
      "char": 2728,
      "##biya": 2729,
      "##pai": 2730,
      "lak": 2731,
      "hay": 2732,
      "##rat": 2733,
      "youtube": 2734,
      "mabrouk": 2735,
      "##lia": 2736,
      "##ahal": 2737,
      "##so": 2738,
      "##ation": 2739,
      "##fe": 2740,
      "ihf": 2741,
      "##ut": 2742,
      "##ber": 2743,
      "##wal": 2744,
      "oy": 2745,
      "##ami3": 2746,
      "daw": 2747,
      "da3": 2748,
      "##min": 2749,
      "##nak": 2750,
      "akha": 2751,
      "##jola": 2752,
      "coura": 2753,
      "kar": 2754,
      "dakchi": 2755,
      "##fach": 2756,
      "ti": 2757,
      "##mana": 2758,
      "##tih": 2759,
      "ir": 2760,
      "##lt": 2761,
      "mra": 2762,
      "az": 2763,
      "maroc": 2764,
      "yak": 2765,
      "ky": 2766,
      "un": 2767,
      "الا": 2768,
      "chal": 2769,
      "courage": 2770,
      "par": 2771,
      "##din": 2772,
      "##zid": 2773,
      "best": 2774,
      "dkh": 2775,
      "a5": 2776,
      "wli": 2777,
      "mara": 2778,
      "##lou": 2779,
      "##me": 2780,
      "mi": 2781,
      "lwalid": 2782,
      "chno": 2783,
      "niba": 2784,
      "safi": 2785,
      "##go": 2786,
      "##asa": 2787,
      "pro": 2788,
      "makan": 2789,
      "mon": 2790,
      "mor": 2791,
      "a7": 2792,
      "##9ay": 2793,
      "##sen": 2794,
      "##lih": 2795,
      "##pe": 2796,
      "bgha": 2797,
      "##اد": 2798,
      "oui": 2799,
      "kml": 2800,
      "ben": 2801,
      "awal": 2802,
      "##tkom": 2803,
      "lkhir": 2804,
      "##stah": 2805,
      "chaine": 2806,
      "cha3": 2807,
      "##dat": 2808,
      "hm": 2809,
      "tar": 2810,
      "fihom": 2811,
      "come": 2812,
      "kamlin": 2813,
      "##era": 2814,
      "bo": 2815,
      "na": 2816,
      "ple": 2817,
      "yr": 2818,
      "tas": 2819,
      "3liya": 2820,
      "sb": 2821,
      "ahbiba": 2822,
      "fran": 2823,
      "knt": 2824,
      "لي": 2825,
      "fach": 2826,
      "nm": 2827,
      "wy": 2828,
      "##🇩🇿": 2829,
      "##riya": 2830,
      "##ew": 2831,
      "##tiha": 2832,
      "diro": 2833,
      "iwa": 2834,
      "law": 2835,
      "##ca": 2836,
      "wel": 2837,
      "##yo": 2838,
      "##9ak": 2839,
      "##nt": 2840,
      "##waf": 2841,
      "tch": 2842,
      "##iri": 2843,
      "ان": 2844,
      "##lha": 2845,
      "##qu": 2846,
      "7ta": 2847,
      "naw": 2848,
      "bayna": 2849,
      "kadir": 2850,
      "##fad": 2851,
      "chof": 2852,
      "alh": 2853,
      "##sn": 2854,
      "tm": 2855,
      "##th": 2856,
      "bou": 2857,
      "ام": 2858,
      "b7al": 2859,
      "nice": 2860,
      "##❤❤❤❤": 2861,
      "from": 2862,
      "drari": 2863,
      "##nk": 2864,
      "makat": 2865,
      "ob": 2866,
      "b9a": 2867,
      "nch": 2868,
      "tabad": 2869,
      "nadi": 2870,
      "##rab": 2871,
      "ws": 2872,
      "##log": 2873,
      "##ih": 2874,
      "##liya": 2875,
      "bha": 2876,
      "##♥♥": 2877,
      "##ير": 2878,
      "##pha": 2879,
      "zin": 2880,
      "##fi9": 2881,
      "wisal": 2882,
      "##fk": 2883,
      "yhf": 2884,
      "wa3ra": 2885,
      "bih": 2886,
      "tfo": 2887,
      "cho": 2888,
      "##3ar": 2889,
      "please": 2890,
      "##men": 2891,
      "mnin": 2892,
      "##la3": 2893,
      "##ouni": 2894,
      "اخ": 2895,
      "##us": 2896,
      "##ans": 2897,
      "##ika": 2898,
      "kifach": 2899,
      "biha": 2900,
      "##ver": 2901,
      "kbir": 2902,
      "tj": 2903,
      "fiya": 2904,
      "ta7": 2905,
      "##lab": 2906,
      "wt": 2907,
      "naz": 2908,
      "wlad": 2909,
      "##oub": 2910,
      "tkh": 2911,
      "##7k": 2912,
      "##jaz": 2913,
      "lhad": 2914,
      "i3": 2915,
      "mabrok": 2916,
      "##yal": 2917,
      "##koum": 2918,
      "chkon": 2919,
      "ichafik": 2920,
      "tkon": 2921,
      "kheti": 2922,
      "ram": 2923,
      "##taw": 2924,
      "ih": 2925,
      "har": 2926,
      "##ية": 2927,
      "n9": 2928,
      "your": 2929,
      "idir": 2930,
      "bal": 2931,
      "bli": 2932,
      "han": 2933,
      "bin": 2934,
      "way": 2935,
      "##3in": 2936,
      "lam": 2937,
      "alpha": 2938,
      "##كن": 2939,
      "god": 2940,
      "brit": 2941,
      "jar": 2942,
      "lham": 2943,
      "chanel": 2944,
      "##ld": 2945,
      "senpai": 2946,
      "hd": 2947,
      "moham": 2948,
      "yalah": 2949,
      "nchalah": 2950,
      "siri": 2951,
      "tbarkelah": 2952,
      "est": 2953,
      "saw": 2954,
      "ikh": 2955,
      "ur": 2956,
      "sala": 2957,
      "##taf": 2958,
      "##ero": 2959,
      "bak": 2960,
      "tabadol": 2961,
      "مع": 2962,
      "##ول": 2963,
      "fre": 2964,
      "bkit": 2965,
      "ychafik": 2966,
      "##dkom": 2967,
      "wk": 2968,
      "naf": 2969,
      "insta": 2970,
      "##ter": 2971,
      "xi": 2972,
      "chwiya": 2973,
      "##naw": 2974,
      "koul": 2975,
      "##ul": 2976,
      "rask": 2977,
      "##houm": 2978,
      "daro": 2979,
      "rad": 2980,
      "bad": 2981,
      "sat": 2982,
      "gol": 2983,
      "ray": 2984,
      "vide": 2985,
      "y3": 2986,
      "okhti": 2987,
      "##we": 2988,
      "##mat": 2989,
      "ydir": 2990,
      "ve": 2991,
      "baz": 2992,
      "##yin": 2993,
      "##nin": 2994,
      "##wan": 2995,
      "##9al": 2996,
      "tbrk": 2997,
      "##yad": 2998,
      "mcha": 2999,
      "jdi": 3000,
      "don": 3001,
      "##ima": 3002,
      "up": 3003,
      "say": 3004,
      "akhouya": 3005,
      "##isa": 3006,
      "##tal": 3007,
      "##yatkom": 3008,
      "3andak": 3009,
      "##3ma": 3010,
      "hia": 3011,
      "##rou": 3012,
      "##sab": 3013,
      "haw": 3014,
      "##mk": 3015,
      "##ame": 3016,
      "cont": 3017,
      "wahad": 3018,
      "vlog": 3019,
      "bel": 3020,
      "tz": 3021,
      "ykha": 3022,
      "##jar": 3023,
      "esp": 3024,
      "##ob": 3025,
      "##ne": 3026,
      "##jbni": 3027,
      "aime": 3028,
      "alg": 3029,
      "وال": 3030,
      "nat": 3031,
      "##bini": 3032,
      "##he": 3033,
      "sou": 3034,
      "3lihom": 3035,
      "##la9": 3036,
      "nd": 3037,
      "fo": 3038,
      "wat": 3039,
      "o3": 3040,
      "akhay": 3041,
      "abon": 3042,
      "##chkil": 3043,
      "chk": 3044,
      "baraka": 3045,
      "##aht": 3046,
      "tahiya": 3047,
      "ich": 3048,
      "dakh": 3049,
      "##bl": 3050,
      "3adi": 3051,
      "##لى": 3052,
      "mot": 3053,
      "wlidat": 3054,
      "or": 3055,
      "##liha": 3056,
      "hado": 3057,
      "des": 3058,
      "##los": 3059,
      "kanh": 3060,
      "3ndk": 3061,
      "mazal": 3062,
      "##lina": 3063,
      "if": 3064,
      "##waj": 3065,
      "mim": 3066,
      "lvideo": 3067,
      "white": 3068,
      "lmos": 3069,
      "##ht": 3070,
      "lha9": 3071,
      "##bib": 3072,
      "sak": 3073,
      "##nas": 3074,
      "##9ol": 3075,
      "ntoma": 3076,
      "##3al": 3077,
      "saliha": 3078,
      "mskin": 3079,
      "ykhali": 3080,
      "hchoma": 3081,
      "##afat": 3082,
      "ma3an": 3083,
      "##bghi": 3084,
      "beau": 3085,
      "ol": 3086,
      "ins": 3087,
      "not": 3088,
      "wj": 3089,
      "##يا": 3090,
      "##tich": 3091,
      "ita": 3092,
      "tak": 3093,
      "naziha": 3094,
      "maf": 3095,
      "عن": 3096,
      "videos": 3097,
      "##gi": 3098,
      "##هم": 3099,
      "fal": 3100,
      "big": 3101,
      "ykh": 3102,
      "##3at": 3103,
      "##gram": 3104,
      "##wah": 3105,
      "ncha": 3106,
      "##ile": 3107,
      "sgh": 3108,
      "3alam": 3109,
      "ما": 3110,
      "##hl": 3111,
      "ghzala": 3112,
      "ba9i": 3113,
      "pli": 3114,
      "mama": 3115,
      "##3m": 3116,
      "##ete": 3117,
      "lahe": 3118,
      "3nd": 3119,
      "bghina": 3120,
      "kayna": 3121,
      "jiti": 3122,
      "lbnat": 3123,
      "ans": 3124,
      "ma3n": 3125,
      "aji": 3126,
      "##htag": 3127,
      "mskina": 3128,
      "khou": 3129,
      "##way": 3130,
      "mbrok": 3131,
      "ma9": 3132,
      "kola": 3133,
      "hashtag": 3134,
      "lihom": 3135,
      "yarab": 3136,
      "##goli": 3137,
      "af": 3138,
      "bab": 3139,
      "vid": 3140,
      "i3tik": 3141,
      "##bah": 3142,
      "##tion": 3143,
      "nad": 3144,
      "dart": 3145,
      "wit": 3146,
      "##dh": 3147,
      "qu": 3148,
      "##lal": 3149,
      "waw": 3150,
      "##que": 3151,
      "ke": 3152,
      "##riw": 3153,
      "##lida": 3154,
      "wn": 3155,
      "##pa": 3156,
      "##وا": 3157,
      "kamal": 3158,
      "aboni": 3159,
      "##dich": 3160,
      "au": 3161,
      "##rib": 3162,
      "kid": 3163,
      "ikha": 3164,
      "mos": 3165,
      "##كم": 3166,
      "bis": 3167,
      "hya": 3168,
      "welah": 3169,
      "can": 3170,
      "##wl": 3171,
      "nchof": 3172,
      "##ct": 3173,
      "ktar": 3174,
      "##ore": 3175,
      "##are": 3176,
      "##frj": 3177,
      "ya3tik": 3178,
      "tari": 3179,
      "##uya": 3180,
      "oh": 3181,
      "go": 3182,
      "##tou": 3183,
      "##bs": 3184,
      "aj": 3185,
      "##faraj": 3186,
      "##was": 3187,
      "alf": 3188,
      "rajl": 3189,
      "##ouli": 3190,
      "lg": 3191,
      "matb": 3192,
      "bikhir": 3193,
      "y3tik": 3194,
      "dh": 3195,
      "kima": 3196,
      "fan": 3197,
      "##gharba": 3198,
      "mehdi": 3199,
      "##vi": 3200,
      "على": 3201,
      "sim": 3202,
      "انا": 3203,
      "url": 3204,
      "##ly": 3205,
      "##ما": 3206,
      "bni": 3207,
      "leg": 3208,
      "##sar": 3209,
      "وا": 3210,
      "na3": 3211,
      "##diha": 3212,
      "##reb": 3213,
      "khalid": 3214,
      "##chafih": 3215,
      "##sk": 3216,
      "##dia": 3217,
      "hadok": 3218,
      "wld": 3219,
      "##hay": 3220,
      "wahed": 3221,
      "hwa": 3222,
      "mach": 3223,
      "##ikom": 3224,
      "habi": 3225,
      "ela": 3226,
      "dahk": 3227,
      "##ws": 3228,
      "##hch": 3229,
      "##bia": 3230,
      "3afakom": 3231,
      "##bgh": 3232,
      "lim": 3233,
      "l2": 3234,
      "##اب": 3235,
      "bnt": 3236,
      "jam": 3237,
      "lwalidin": 3238,
      "ina": 3239,
      "tl": 3240,
      "##yt": 3241,
      "##va": 3242,
      "bnat": 3243,
      "ch7al": 3244,
      "tv": 3245,
      "maz": 3246,
      "aymen": 3247,
      "kont": 3248,
      "##wj": 3249,
      "##aza": 3250,
      "wana": 3251,
      "mohamed": 3252,
      "kayt": 3253,
      "que": 3254,
      "##ake": 3255,
      "##yn": 3256,
      "aslan": 3257,
      "tn": 3258,
      "##مي": 3259,
      "jo": 3260,
      "5oya": 3261,
      "fel": 3262,
      "this": 3263,
      "##ba3": 3264,
      "jami3": 3265,
      "war": 3266,
      "tstah": 3267,
      "dah": 3268,
      "##las": 3269,
      "##ayn": 3270,
      "d3iw": 3271,
      "##ouch": 3272,
      "khoti": 3273,
      "wor": 3274,
      "##ome": 3275,
      "l9anat": 3276,
      "##tr": 3277,
      "##dm": 3278,
      "##atni": 3279,
      "3ziza": 3280,
      "du": 3281,
      "dri": 3282,
      "akhi": 3283,
      "hou": 3284,
      "fk": 3285,
      "pliz": 3286,
      "wm": 3287,
      "dyalo": 3288,
      "dok": 3289,
      "##iyati": 3290,
      "##في": 3291,
      "##cho": 3292,
      "##hd": 3293,
      "ta9": 3294,
      "##lilah": 3295,
      "##🇩🇿🇩🇿": 3296,
      "shi": 3297,
      "f3": 3298,
      "##ez": 3299,
      "with": 3300,
      "hade": 3301,
      "##bab": 3302,
      "lgh": 3303,
      "##eme": 3304,
      "3ando": 3305,
      "lhal": 3306,
      "##ub": 3307,
      "##golo": 3308,
      "tes": 3309,
      "lala": 3310,
      "lya": 3311,
      "bilah": 3312,
      "ikhali": 3313,
      "nk": 3314,
      "bt": 3315,
      "dyalak": 3316,
      "##alb": 3317,
      "tele": 3318,
      "الع": 3319,
      "chaf": 3320,
      "##dan": 3321,
      "3m": 3322,
      "jab": 3323,
      "alm": 3324,
      "vidio": 3325,
      "vra": 3326,
      "ag": 3327,
      "ha9": 3328,
      "علي": 3329,
      "fras": 3330,
      "##bibti": 3331,
      "m3aha": 3332,
      "fire": 3333,
      "##tina": 3334,
      "twa": 3335,
      "rajal": 3336,
      "##bha": 3337,
      "wa3er": 3338,
      "##e9": 3339,
      "ous": 3340,
      "jay": 3341,
      "##tab": 3342,
      "mch": 3343,
      "##bni": 3344,
      "lbar": 3345,
      "##ور": 3346,
      "asi": 3347,
      "fat": 3348,
      "legend": 3349,
      "7na": 3350,
      "marhba": 3351,
      "##enta": 3352,
      "##adid": 3353,
      "yat": 3354,
      "بال": 3355,
      "##oud": 3356,
      "goli": 3357,
      "##مة": 3358,
      "##war": 3359,
      "دي": 3360,
      "s3i": 3361,
      "a7san": 3362,
      "koun": 3363,
      "by": 3364,
      "##ado": 3365,
      "7it": 3366,
      "rajli": 3367,
      "lakh": 3368,
      "sk": 3369,
      "##ich": 3370,
      "mali": 3371,
      "##ouj": 3372,
      "walh": 3373,
      "bant": 3374,
      "##tirak": 3375,
      "hamla": 3376,
      "##ebe": 3377,
      "bat": 3378,
      "##diro": 3379,
      "smit": 3380,
      "ghay": 3381,
      "ilham": 3382,
      "hat": 3383,
      "##fin": 3384,
      "##ahl": 3385,
      "play": 3386,
      "##oup": 3387,
      "##9ach": 3388,
      "##bt": 3389,
      "لا": 3390,
      "hab": 3391,
      "##hafdak": 3392,
      "##mn": 3393,
      "kaml": 3394,
      "taf": 3395,
      "salm": 3396,
      "##du": 3397,
      "##khal": 3398,
      "##🇲🇦🇲🇦🇲🇦🇲🇦": 3399,
      "9an": 3400,
      "##dolah": 3401,
      "hahahaha": 3402,
      "kay3": 3403,
      "cu": 3404,
      "##mchi": 3405,
      "mag": 3406,
      "khati": 3407,
      "cha3b": 3408,
      "that": 3409,
      "brojola": 3410,
      "mni": 3411,
      "vedio": 3412,
      "tani": 3413,
      "lc": 3414,
      "##ني": 3415,
      "od": 3416,
      "oum": 3417,
      "##dna": 3418,
      "fatima": 3419,
      "او": 3420,
      "##ade": 3421,
      "##ers": 3422,
      "hu": 3423,
      "sara": 3424,
      "flm": 3425,
      "##9k": 3426,
      "fraht": 3427,
      "dialk": 3428,
      "t7": 3429,
      "yfar": 3430,
      "taha": 3431,
      "hsan": 3432,
      "l3ad": 3433,
      "3alik": 3434,
      "awili": 3435,
      "kantmna": 3436,
      "sad": 3437,
      "##ej": 3438,
      "lwalida": 3439,
      "##him": 3440,
      "##diyatkom": 3441,
      "bnadm": 3442,
      "bsaha": 3443,
      "gu": 3444,
      "##zo": 3445,
      "sha": 3446,
      "mchi": 3447,
      "##lim": 3448,
      "##ph": 3449,
      "yh": 3450,
      "##ort": 3451,
      "ikon": 3452,
      "rjal": 3453,
      "bghiti": 3454,
      "yf": 3455,
      "wax": 3456,
      "makayn": 3457,
      "##شت": 3458,
      "kats": 3459,
      "pas": 3460,
      "km": 3461,
      "fam": 3462,
      "##iw": 3463,
      "3ela": 3464,
      "mis": 3465,
      "naj": 3466,
      "m3akom": 3467,
      "ykon": 3468,
      "nf": 3469,
      "##رب": 3470,
      "##9it": 3471,
      "اس": 3472,
      "##👍🏻": 3473,
      "##wiya": 3474,
      "##wla": 3475,
      "mzyan": 3476,
      "3andk": 3477,
      "sp": 3478,
      "##3awn": 3479,
      "##jaw": 3480,
      "##bak": 3481,
      "##art": 3482,
      "nafs": 3483,
      "jak": 3484,
      "##ato": 3485,
      "wa7d": 3486,
      "##يو": 3487,
      "##b3": 3488,
      "3ali": 3489,
      "hda": 3490,
      "nh": 3491,
      "اختي": 3492,
      "##لو": 3493,
      "##sef": 3494,
      "hamada": 3495,
      "##riti": 3496,
      "makh": 3497,
      "##رح": 3498,
      "awl": 3499,
      "md": 3500,
      "sa3a": 3501,
      "zid": 3502,
      "m9": 3503,
      "wald": 3504,
      "##alak": 3505,
      "ap": 3506,
      "##dit": 3507,
      "##mot": 3508,
      "andi": 3509,
      "3aj": 3510,
      "darori": 3511,
      "##til": 3512,
      "tji": 3513,
      "##halah": 3514,
      "ft": 3515,
      "tel": 3516,
      "wahda": 3517,
      "ousama": 3518,
      "3en": 3519,
      "##ria": 3520,
      "##gu": 3521,
      "##yd": 3522,
      "kbira": 3523,
      "##yati": 3524,
      "maghri": 3525,
      "تب": 3526,
      "contin": 3527,
      "daha": 3528,
      "9t": 3529,
      "الح": 3530,
      "tbar": 3531,
      "##bk": 3532,
      "##bad": 3533,
      "kanhma9": 3534,
      "##olo": 3535,
      "w3": 3536,
      "##nach": 3537,
      "##رك": 3538,
      "yes": 3539,
      "ju": 3540,
      "##iro": 3541,
      "smi": 3542,
      "##ger": 3543,
      "yd": 3544,
      "##itini": 3545,
      "##i3": 3546,
      "nw": 3547,
      "lmoh": 3548,
      "haf": 3549,
      "##oula": 3550,
      "##has": 3551,
      "tbrklah": 3552,
      "elik": 3553,
      "wa9": 3554,
      "nawara": 3555,
      "مكن": 3556,
      "espana": 3557,
      "da3m": 3558,
      "ani": 3559,
      "3l": 3560,
      "##ام": 3561,
      "gi": 3562,
      "rasak": 3563,
      "##owa": 3564,
      "dz": 3565,
      "lu": 3566,
      "30": 3567,
      "##ja3": 3568,
      "##fat": 3569,
      "bsh": 3570,
      "##fih": 3571,
      "na9": 3572,
      "rasi": 3573,
      "##ray": 3574,
      "##alh": 3575,
      "##با": 3576,
      "9bal": 3577,
      "life": 3578,
      "wasafat": 3579,
      "maw": 3580,
      "diali": 3581,
      "##khol": 3582,
      "ntmna": 3583,
      "##adan": 3584,
      "3jb": 3585,
      "##ale": 3586,
      "ca": 3587,
      "hakak": 3588,
      "kanat": 3589,
      "instagram": 3590,
      "fb": 3591,
      "jdida": 3592,
      "dayra": 3593,
      "ghat": 3594,
      "what": 3595,
      "raso": 3596,
      "tahiyati": 3597,
      "##dab": 3598,
      "ran": 3599,
      "malik": 3600,
      "##7t": 3601,
      "live": 3602,
      "tri": 3603,
      "li3": 3604,
      "tfar": 3605,
      "waj": 3606,
      "film": 3607,
      "##aly": 3608,
      "##saw": 3609,
      "lach": 3610,
      "##limin": 3611,
      "##dra": 3612,
      "yousef": 3613,
      "##fiha": 3614,
      "lib": 3615,
      "w9": 3616,
      "fhal": 3617,
      "##alat": 3618,
      "comenta": 3619,
      "khuya": 3620,
      "bent": 3621,
      "🇲🇦": 3622,
      "moroc": 3623,
      "##ouh": 3624,
      "##hali": 3625,
      "##j3": 3626,
      "zaw": 3627,
      "lmar": 3628,
      "##شي": 3629,
      "lr": 3630,
      "olh": 3631,
      "##niya": 3632,
      "##ania": 3633,
      "##l9a": 3634,
      "##7ak": 3635,
      "##20": 3636,
      "tra": 3637,
      "##jabni": 3638,
      "pe": 3639,
      "##diti": 3640,
      "madir": 3641,
      "9ad": 3642,
      "##yr": 3643,
      "wan": 3644,
      "khe": 3645,
      "rakom": 3646,
      "mzn": 3647,
      "fs": 3648,
      "aya": 3649,
      "italia": 3650,
      "tabona": 3651,
      "را": 3652,
      "ver": 3653,
      "bch": 3654,
      "b3da": 3655,
      "blkhir": 3656,
      "rajel": 3657,
      "##رو": 3658,
      "##wf": 3659,
      "50": 3660,
      "walid": 3661,
      "##nou": 3662,
      "##raft": 3663,
      "rasek": 3664,
      "ifar": 3665,
      "ga": 3666,
      "one": 3667,
      "##7i": 3668,
      "koulchi": 3669,
      "##9iti": 3670,
      "tana": 3671,
      "##mou": 3672,
      "yan": 3673,
      "##يت": 3674,
      "##m3": 3675,
      "##tawa": 3676,
      "taj": 3677,
      "lba3": 3678,
      "saf": 3679,
      "tkha": 3680,
      "nakh": 3681,
      "1m": 3682,
      "##اء": 3683,
      "nor": 3684,
      "##l9": 3685,
      "son": 3686,
      "asah": 3687,
      "thank": 3688,
      "dyl": 3689,
      "d3": 3690,
      "i7": 3691,
      "##bin": 3692,
      "7aja": 3693,
      "##ra9": 3694,
      "magha": 3695,
      "06": 3696,
      "hyat": 3697,
      "las": 3698,
      "ch3": 3699,
      "sf": 3700,
      "likay": 3701,
      "##pi": 3702,
      "##res": 3703,
      "kano": 3704,
      "lmra": 3705,
      "9as": 3706,
      "##goul": 3707,
      "youtuber": 3708,
      "yahfad": 3709,
      "bit": 3710,
      "baghi": 3711,
      "##erie": 3712,
      "##lali": 3713,
      "##dih": 3714,
      "ysahal": 3715,
      "##kil": 3716,
      "##atk": 3717,
      "hram": 3718,
      "wr": 3719,
      "jib": 3720,
      "magh": 3721,
      "lil": 3722,
      "res": 3723,
      "mbr": 3724,
      "ex": 3725,
      "##rek": 3726,
      "konti": 3727,
      "laf": 3728,
      "##raha": 3729,
      "##wach": 3730,
      "ken": 3731,
      "yakhod": 3732,
      "khs": 3733,
      "laha": 3734,
      "y7": 3735,
      "##ta3": 3736,
      "aymane": 3737,
      "##ahom": 3738,
      "akheti": 3739,
      "##w9": 3740,
      "zwinin": 3741,
      "bnadem": 3742,
      "shab": 3743,
      "sr": 3744,
      "dis": 3745,
      "chofi": 3746,
      "tcha": 3747,
      "3a9": 3748,
      "ghan": 3749,
      "##oti": 3750,
      "gam": 3751,
      "khaso": 3752,
      "raw": 3753,
      "##je": 3754,
      "##khl": 3755,
      "asat": 3756,
      "fay": 3757,
      "maskin": 3758,
      "tabi": 3759,
      "##asi": 3760,
      "##dma": 3761,
      "##ouha": 3762,
      "##ene": 3763,
      "za3": 3764,
      "oma": 3765,
      "fak": 3766,
      "##chafiha": 3767,
      "##bd": 3768,
      "kandir": 3769,
      "bone": 3770,
      "الج": 3771,
      "boh": 3772,
      "##diya": 3773,
      "ديال": 3774,
      "casa": 3775,
      "labas": 3776,
      "sw": 3777,
      "yaw": 3778,
      "dayr": 3779,
      "##lib": 3780,
      "lmaghrib": 3781,
      "din": 3782,
      "3elik": 3783,
      "##ede": 3784,
      "##7ab": 3785,
      "ikhli": 3786,
      "##za9": 3787,
      "kolo": 3788,
      "pa": 3789,
      "lahi": 3790,
      "klam": 3791,
      "bdahk": 3792,
      "##b9ach": 3793,
      "kal": 3794,
      "##aml": 3795,
      "##ta9": 3796,
      "##shi": 3797,
      "wo": 3798,
      "##ement": 3799,
      "wili": 3800,
      "##تو": 3801,
      "##jazik": 3802,
      "darti": 3803,
      "##gar": 3804,
      "##oune": 3805,
      "yam": 3806,
      "mochkil": 3807,
      "isahal": 3808,
      "tari9a": 3809,
      "hala": 3810,
      "##wad": 3811,
      "bien": 3812,
      "m3ana": 3813,
      "wa3ar": 3814,
      "##rad": 3815,
      "ji": 3816,
      "kit": 3817,
      "##haja": 3818,
      "drt": 3819,
      "##jh": 3820,
      "##tach": 3821,
      "nam": 3822,
      "##khlo": 3823,
      "##sin": 3824,
      "##ادل": 3825,
      "squ": 3826,
      "fh": 3827,
      "maskina": 3828,
      "dari": 3829,
      "lilah": 3830,
      "##sa7": 3831,
      "lhadra": 3832,
      "madi": 3833,
      "eu": 3834,
      "france": 3835,
      "##emel": 3836,
      "lhm": 3837,
      "kep": 3838,
      "##orona": 3839,
      "bax": 3840,
      "coment": 3841,
      "##يد": 3842,
      "##7am": 3843,
      "##li9": 3844,
      "sa7": 3845,
      "dyalha": 3846,
      "ser": 3847,
      "##اك": 3848,
      "##ze": 3849,
      "##and": 3850,
      "bhad": 3851,
      "rojola": 3852,
      "jit": 3853,
      "ij": 3854,
      "wela": 3855,
      "wch": 3856,
      "3id": 3857,
      "kath": 3858,
      "3az": 3859,
      "##oui": 3860,
      "##yab": 3861,
      "rb": 3862,
      "galt": 3863,
      "3ib": 3864,
      "##fti": 3865,
      "##hana": 3866,
      "dire": 3867,
      "rat": 3868,
      "mina": 3869,
      "7am": 3870,
      "khli": 3871,
      "##a7": 3872,
      "but": 3873,
      "kab": 3874,
      "tad": 3875,
      "dk": 3876,
      "##dolilah": 3877,
      "fer": 3878,
      "jaz": 3879,
      "3ti": 3880,
      "layk": 3881,
      "mol": 3882,
      "ty": 3883,
      "akbar": 3884,
      "تم": 3885,
      "##اف": 3886,
      "tma": 3887,
      "la7": 3888,
      "fikom": 3889,
      "##phone": 3890,
      "al3": 3891,
      "kas": 3892,
      "3andha": 3893,
      "lb3": 3894,
      "sur": 3895,
      "lok": 3896,
      "عند": 3897,
      "takh": 3898,
      "##9ad": 3899,
      "##tage": 3900,
      "##oz": 3901,
      "dan": 3902,
      "a5ti": 3903,
      "dou": 3904,
      "knti": 3905,
      "tala": 3906,
      "dala": 3907,
      "##orba": 3908,
      "sin": 3909,
      "mh": 3910,
      "##siba": 3911,
      "fad": 3912,
      "dhk": 3913,
      "##بة": 3914,
      "##you": 3915,
      "3al": 3916,
      "fla": 3917,
      "ramadan": 3918,
      "doriya": 3919,
      "##ech": 3920,
      "##9in": 3921,
      "7al": 3922,
      "dw": 3923,
      "##dima": 3924,
      "hack": 3925,
      "##eni": 3926,
      "##jah": 3927,
      "khal": 3928,
      "ber": 3929,
      "continu": 3930,
      "net": 3931,
      "##ach": 3932,
      "t3aw": 3933,
      "##chofo": 3934,
      "##o9": 3935,
      "azin": 3936,
      "hmd": 3937,
      "ba3d": 3938,
      "lit": 3939,
      "lin": 3940,
      "##afik": 3941,
      "##rt": 3942,
      "bchi": 3943,
      "pour": 3944,
      "b9at": 3945,
      "kand": 3946,
      "achno": 3947,
      "3lia": 3948,
      "blad": 3949,
      "f9": 3950,
      "fatiha": 3951,
      "chah": 3952,
      "##sad": 3953,
      "squad": 3954,
      "salon": 3955,
      "yn": 3956,
      "9albi": 3957,
      "##rft": 3958,
      "40": 3959,
      "##bel": 3960,
      "##رج": 3961,
      "khadi": 3962,
      "##barak": 3963,
      "##xa": 3964,
      "fu": 3965,
      "vous": 3966,
      "##gal": 3967,
      "201": 3968,
      "nes": 3969,
      "hk": 3970,
      "##ouna": 3971,
      "##jiw": 3972,
      "ba3da": 3973,
      "afak": 3974,
      "hahaha": 3975,
      "gir": 3976,
      "الس": 3977,
      "mrid": 3978,
      "##wli": 3979,
      "hbibti": 3980,
      "nar": 3981,
      "9at": 3982,
      "##ghar": 3983,
      "dj": 3984,
      "bhalk": 3985,
      "##ربي": 3986,
      "flos": 3987,
      "pub": 3988,
      "dl": 3989,
      "ljadid": 3990,
      "##ght": 3991,
      "agadir": 3992,
      "kaynin": 3993,
      "world": 3994,
      "##rh": 3995,
      "nit": 3996,
      "l3am": 3997,
      "mosta": 3998,
      "12": 3999,
      "##oi": 4000,
      "akhir": 4001,
      "##jda": 4002,
      "##لم": 4003,
      "aboner": 4004,
      "##lil": 4005,
      "15": 4006,
      "##ena": 4007,
      "ndiro": 4008,
      "awdi": 4009,
      "##wali": 4010,
      "##mr": 4011,
      "makrah": 4012,
      "lba": 4013,
      "zina": 4014,
      "diya": 4015,
      "mrhba": 4016,
      "##och": 4017,
      "her": 4018,
      "##اري": 4019,
      "jarab": 4020,
      "##9ila": 4021,
      "slamtk": 4022,
      "ret": 4023,
      "jawbini": 4024,
      "yi": 4025,
      "black": 4026,
      "diyal": 4027,
      "num": 4028,
      "##riba": 4029,
      "##لام": 4030,
      "9bl": 4031,
      "mbrouk": 4032,
      "##rbi": 4033,
      "fas": 4034,
      "##co": 4035,
      "wil": 4036,
      "##a3a": 4037,
      "lmohim": 4038,
      "3likoum": 4039,
      "lblad": 4040,
      "dahak": 4041,
      "bikom": 4042,
      "##ست": 4043,
      "nsaw": 4044,
      "wow": 4045,
      "##ela": 4046,
      "chaft": 4047,
      "3ndo": 4048,
      "sup": 4049,
      "##arat": 4050,
      "##yana": 4051,
      "tro": 4052,
      "كل": 4053,
      "maxi": 4054,
      "##من": 4055,
      "##3ich": 4056,
      "maghrib": 4057,
      "##like": 4058,
      "kher": 4059,
      "lvid": 4060,
      "##ko": 4061,
      "الق": 4062,
      "katb": 4063,
      "##tir": 4064,
      "daz": 4065,
      "##day": 4066,
      "asahbi": 4067,
      "##5a": 4068,
      "rajlk": 4069,
      "الت": 4070,
      "##9ra": 4071,
      "##mout": 4072,
      "ac": 4073,
      "##حد": 4074,
      "##ac": 4075,
      "dor": 4076,
      "want": 4077,
      "##ris": 4078,
      "drti": 4079,
      "##nes": 4080,
      "cv": 4081,
      "##eli": 4082,
      "katf": 4083,
      "##owat": 4084,
      "##khs": 4085,
      "anti": 4086,
      "nasiha": 4087,
      "##rit": 4088,
      "##riwda": 4089,
      "zah": 4090,
      "##atabi": 4091,
      "win": 4092,
      "insan": 4093,
      "flous": 4094,
      "malk": 4095,
      "##uk": 4096,
      "##bghik": 4097,
      "sghira": 4098,
      "ai": 4099,
      "lwas": 4100,
      "bda": 4101,
      "dal": 4102,
      "mrc": 4103,
      "##رة": 4104,
      "##law": 4105,
      "##eha": 4106,
      "heta": 4107,
      "sem": 4108,
      "##ux": 4109,
      "haj": 4110,
      "##عم": 4111,
      "##opi": 4112,
      "slamtak": 4113,
      "cuis": 4114,
      "y3aw": 4115,
      "##est": 4116,
      "##👍🏻👍🏻": 4117,
      "kin": 4118,
      "##aman": 4119,
      "l3alam": 4120,
      "wlahila": 4121,
      "##iment": 4122,
      "ele": 4123,
      "##اش": 4124,
      "##3b": 4125,
      "❤❤❤": 4126,
      "hdar": 4127,
      "##3e": 4128,
      "khty": 4129,
      "dyalek": 4130,
      "l3az": 4131,
      "ist": 4132,
      "san": 4133,
      "3om": 4134,
      "tla": 4135,
      "l3adim": 4136,
      "##atkom": 4137,
      "ghzal": 4138,
      "ba9a": 4139,
      "##nd": 4140,
      "##taj": 4141,
      "kantmana": 4142,
      "❤❤": 4143,
      "tbib": 4144,
      "##لك": 4145,
      "##ard": 4146,
      "vive": 4147,
      "filali": 4148,
      "5ti": 4149,
      "chifa": 4150,
      "beauty": 4151,
      "franca": 4152,
      "bu": 4153,
      "continuation": 4154,
      "fd": 4155,
      "##ahd": 4156,
      "la9": 4157,
      "fdar": 4158,
      "ichtirak": 4159,
      "whda": 4160,
      "ton": 4161,
      "##wk": 4162,
      "mtab": 4163,
      "iwaf": 4164,
      "have": 4165,
      "شه": 4166,
      "تبادل": 4167,
      "tl3": 4168,
      "##wh": 4169,
      "dam": 4170,
      "bela": 4171,
      "tjaw": 4172,
      "sara7a": 4173,
      "alma": 4174,
      "كي": 4175,
      "##wr": 4176,
      "sa7a": 4177,
      "##omo": 4178,
      "ifr": 4179,
      "##kan": 4180,
      "fl3": 4181,
      "اي": 4182,
      "##mak": 4183,
      "salama": 4184,
      "lp": 4185,
      "chkoun": 4186,
      "sghir": 4187,
      "##zaw": 4188,
      "##kher": 4189,
      "cuisine": 4190,
      "ma3a": 4191,
      "##نت": 4192,
      "momo": 4193,
      "##gli": 4194,
      "##رف": 4195,
      "weld": 4196,
      "katk": 4197,
      "ljami3": 4198,
      "##ns": 4199,
      "sana": 4200,
      "##qa": 4201,
      "wd": 4202,
      "kamla": 4203,
      "##afa": 4204,
      "m3ahom": 4205,
      "##rej": 4206,
      "##7o": 4207,
      "anta": 4208,
      "bladi": 4209,
      "bele": 4210,
      "##hahahaha": 4211,
      "lvi": 4212,
      "khadija": 4213,
      "asma": 4214,
      "nrb": 4215,
      "sahla": 4216,
      "katch": 4217,
      "##ref": 4218,
      "comp": 4219,
      "##itan": 4220,
      "khask": 4221,
      "##ebi": 4222,
      "##int": 4223,
      "3raf": 4224,
      "msak": 4225,
      "bebe": 4226,
      "الك": 4227,
      "الب": 4228,
      "zay": 4229,
      "##3rf": 4230,
      "wa3rin": 4231,
      "##3t": 4232,
      "mnk": 4233,
      "vraiment": 4234,
      "##راك": 4235,
      "dwa": 4236,
      "tfou": 4237,
      "##lic": 4238,
      "khot": 4239,
      "houwa": 4240,
      "mel": 4241,
      "##bri": 4242,
      "dyalna": 4243,
      "chouf": 4244,
      "rja3": 4245,
      "tastah": 4246,
      "##ye": 4247,
      "kanti": 4248,
      "dkhlo": 4249,
      "jdid": 4250,
      "za3ma": 4251,
      "omar": 4252,
      "i3aw": 4253,
      "sil": 4254,
      "fes": 4255,
      "l7a9": 4256,
      "chou": 4257,
      "non": 4258,
      "hah": 4259,
      "##9i9a": 4260,
      "##chat": 4261,
      "##jik": 4262,
      "mohim": 4263,
      "fina": 4264,
      "comentaire": 4265,
      "habibti": 4266,
      "##ذا": 4267,
      "##wlk": 4268,
      "bnadam": 4269,
      "##تك": 4270,
      "##hek": 4271,
      "##zar": 4272,
      "fra": 4273,
      "mili": 4274,
      "##jat": 4275,
      "euro": 4276,
      "##3ab": 4277,
      "##عة": 4278,
      "3i": 4279,
      "chft": 4280,
      "fac": 4281,
      "chf": 4282,
      "kays": 4283,
      "##thom": 4284,
      "s3ib": 4285,
      "ever": 4286,
      "قنا": 4287,
      "3in": 4288,
      "mari": 4289,
      "mnaw": 4290,
      "##دق": 4291,
      "ihfad": 4292,
      "ykhalik": 4293,
      "lmot": 4294,
      "##golik": 4295,
      "rajlak": 4296,
      "zi": 4297,
      "blasa": 4298,
      "bid": 4299,
      "l5": 4300,
      "ykhli": 4301,
      "pi": 4302,
      "basah": 4303,
      "##دا": 4304,
      "##3k": 4305,
      "##9s": 4306,
      "mtaf": 4307,
      "##yed": 4308,
      "##ahch": 4309,
      "9ol": 4310,
      "sbar": 4311,
      "fm": 4312,
      "sla": 4313,
      "##ain": 4314,
      "##لة": 4315,
      "##zaz": 4316,
      "jaya": 4317,
      "##jri": 4318,
      "op": 4319,
      "##nia": 4320,
      "raw3a": 4321,
      "nah": 4322,
      "ewa": 4323,
      "tres": 4324,
      "nase": 4325,
      "hed": 4326,
      "##dob": 4327,
      "##jal": 4328,
      "kayd": 4329,
      "cam": 4330,
      "nji": 4331,
      "l7al": 4332,
      "##akom": 4333,
      "nsi": 4334,
      "hsn": 4335,
      "hal9a": 4336,
      "##nad": 4337,
      "per": 4338,
      "##sap": 4339,
      "kans": 4340,
      "yakhti": 4341,
      "##dim": 4342,
      "met": 4343,
      "khat": 4344,
      "##iba": 4345,
      "w7": 4346,
      "zwaj": 4347,
      "##ouz": 4348,
      "##da9": 4349,
      "wad": 4350,
      "abones": 4351,
      "##bil": 4352,
      "##uf": 4353,
      "ntouma": 4354,
      "##bki": 4355,
      "us": 4356,
      "##barek": 4357,
      "##izlan": 4358,
      "fia": 4359,
      "walkin": 4360,
      "bhali": 4361,
      "مت": 4362,
      "##nya": 4363,
      "ls": 4364,
      "المغ": 4365,
      "##ode": 4366,
      "khalti": 4367,
      "chihaja": 4368,
      "##kar": 4369,
      "##دة": 4370,
      "lkharaz": 4371,
      "##ola": 4372,
      "##aki": 4373,
      "##gham": 4374,
      "##ls": 4375,
      "b7": 4376,
      "##ke": 4377,
      "sahbi": 4378,
      "##wayj": 4379,
      "##ys": 4380,
      "##hada": 4381,
      "##سي": 4382,
      "teb": 4383,
      "9anati": 4384,
      "##abar": 4385,
      "##wel": 4386,
      "##lous": 4387,
      "moroco": 4388,
      "pls": 4389,
      "hadra": 4390,
      "bsa7": 4391,
      "anas": 4392,
      "walou": 4393,
      "sd": 4394,
      "brina": 4395,
      "##9aych": 4396,
      "khona": 4397,
      "ihafdak": 4398,
      "hchouma": 4399,
      "fir": 4400,
      "fo9": 4401,
      "##bou": 4402,
      "likat": 4403,
      "bagh": 4404,
      "col": 4405,
      "dyalkom": 4406,
      "bah": 4407,
      "rahom": 4408,
      "abd": 4409,
      "##3raf": 4410,
      "3awn": 4411,
      "3andek": 4412,
      "said": 4413,
      "##ayat": 4414,
      "diha": 4415,
      "3y": 4416,
      "wa9ila": 4417,
      "##ond": 4418,
      "lan": 4419,
      "alikom": 4420,
      "besah": 4421,
      "salima": 4422,
      "retour": 4423,
      "awel": 4424,
      "ichafih": 4425,
      "##3ad": 4426,
      "##bda": 4427,
      "##chouf": 4428,
      "##3aya": 4429,
      "jani": 4430,
      "ya3ni": 4431,
      "mohan": 4432,
      "الش": 4433,
      "اح": 4434,
      "9tal": 4435,
      "##gn": 4436,
      "##mane": 4437,
      "تع": 4438,
      "karim": 4439,
      "يا": 4440,
      "red": 4441,
      "##كرا": 4442,
      "##ayr": 4443,
      "##chin": 4444,
      "ra9": 4445,
      "lmgharba": 4446,
      "##yti": 4447,
      "الف": 4448,
      "##khaf": 4449,
      "##3l": 4450,
      "bg": 4451,
      "hs": 4452,
      "ned": 4453,
      "sid": 4454,
      "3arf": 4455,
      "##jbini": 4456,
      "car": 4457,
      "ywaf": 4458,
      "##ora": 4459,
      "##ese": 4460,
      "##wha": 4461,
      "kolhom": 4462,
      "mafham": 4463,
      "##chan": 4464,
      "yer": 4465,
      "##tawfi9": 4466,
      "hana": 4467,
      "okan": 4468,
      "chwia": 4469,
      "just": 4470,
      "irham": 4471,
      "lhar": 4472,
      "mani": 4473,
      "pr": 4474,
      "yaha": 4475,
      "lwal": 4476,
      "##cri": 4477,
      "##com": 4478,
      "vlogs": 4479,
      "sot": 4480,
      "##akil": 4481,
      "##قة": 4482,
      "##rar": 4483,
      "chef": 4484,
      "bagha": 4485,
      "ykhalikom": 4486,
      "give": 4487,
      "sakna": 4488,
      "bh": 4489,
      "كت": 4490,
      "lmak": 4491,
      "bara": 4492,
      "kants": 4493,
      "mtb": 4494,
      "bihom": 4495,
      "kaw": 4496,
      "##lich": 4497,
      "galik": 4498,
      "dra": 4499,
      "rasha": 4500,
      "khalik": 4501,
      "tem": 4502,
      "##coup": 4503,
      "chtar": 4504,
      "fl9": 4505,
      "##زي": 4506,
      "fa9": 4507,
      "td": 4508,
      "okat": 4509,
      "blast": 4510,
      "mazyan": 4511,
      "##يوات": 4512,
      "##rti": 4513,
      "##nan": 4514,
      "##وم": 4515,
      "3ndha": 4516,
      "##ota": 4517,
      "por": 4518,
      "jatni": 4519,
      "lhdra": 4520,
      "zit": 4521,
      "nak": 4522,
      "z3ma": 4523,
      "bina": 4524,
      "حت": 4525,
      "n3aw": 4526,
      "ht": 4527,
      "3rf": 4528,
      "wani": 4529,
      "ikhalikom": 4530,
      "deya": 4531,
      "ma7": 4532,
      "bras": 4533,
      "sabiri": 4534,
      "wache": 4535,
      "##awi": 4536,
      "##كي": 4537,
      "شهيوات": 4538,
      "##oha": 4539,
      "##yda": 4540,
      "mj": 4541,
      "##خل": 4542,
      "ow": 4543,
      "##yas": 4544,
      "##mena": 4545,
      "##ose": 4546,
      "mek": 4547,
      "##rd": 4548,
      "dkhol": 4549,
      "l3a": 4550,
      "بص": 4551,
      "mera": 4552,
      "hero": 4553,
      "khayba": 4554,
      "lfo": 4555,
      "##lach": 4556,
      "s3iba": 4557,
      "thala": 4558,
      "##نو": 4559,
      "dylk": 4560,
      "ikhalik": 4561,
      "his": 4562,
      "##alin": 4563,
      "waldi": 4564,
      "39": 4565,
      "ter": 4566,
      "##abona": 4567,
      "##hem": 4568,
      "##yam": 4569,
      "mrida": 4570,
      "nach": 4571,
      "ldar": 4572,
      "lmas": 4573,
      "##z9": 4574,
      "twahach": 4575,
      "yad": 4576,
      "19": 4577,
      "##fdak": 4578,
      "iy": 4579,
      "##abe": 4580,
      "kik": 4581,
      "##3am": 4582,
      "bari": 4583,
      "##♥♥♥♥": 4584,
      "kaydir": 4585,
      "yo": 4586,
      "kanchof": 4587,
      "hacker": 4588,
      "khok": 4589,
      "##jeb": 4590,
      "yek": 4591,
      "شي": 4592,
      "sghar": 4593,
      "##اني": 4594,
      "kai": 4595,
      "##homch": 4596,
      "normal": 4597,
      "ld": 4598,
      "alb": 4599,
      "##diyat": 4600,
      "hir": 4601,
      "tgoli": 4602,
      "gher": 4603,
      "kharaz": 4604,
      "hsen": 4605,
      "yhaf": 4606,
      "##ahel": 4607,
      "wb": 4608,
      "rzala": 4609,
      "هو": 4610,
      "##loh": 4611,
      "l3ar": 4612,
      "##arib": 4613,
      "##chaf": 4614,
      "yarham": 4615,
      "##fd": 4616,
      "a5oya": 4617,
      "##10": 4618,
      "och": 4619,
      "##ork": 4620,
      "beaucoup": 4621,
      "pri": 4622,
      "##قي": 4623,
      "nkh": 4624,
      "mafi": 4625,
      "##شتراك": 4626,
      "now": 4627,
      "alahoma": 4628,
      "lt": 4629,
      "omat": 4630,
      "##nch": 4631,
      "##tif": 4632,
      "pc": 4633,
      "##ey": 4634,
      "lvidio": 4635,
      "khra": 4636,
      "jad": 4637,
      "poli": 4638,
      "kis": 4639,
      "##alk": 4640,
      "fchi": 4641,
      "##دو": 4642,
      "fah": 4643,
      "##7m": 4644,
      "very": 4645,
      "##wch": 4646,
      "ychafih": 4647,
      "##3as": 4648,
      "lbnt": 4649,
      "haz": 4650,
      "walidik": 4651,
      "##gou": 4652,
      "##osa": 4653,
      "##ole": 4654,
      "chark": 4655,
      "##sl": 4656,
      "stp": 4657,
      "نت": 4658,
      "mno": 4659,
      "##wd": 4660,
      "b9ay": 4661,
      "alger": 4662,
      "mila": 4663,
      "##kt": 4664,
      "bayn": 4665,
      "sidi": 4666,
      "whd": 4667,
      "kanmot": 4668,
      "chr": 4669,
      "3at": 4670,
      "##age": 4671,
      "b3a9": 4672,
      "ima": 4673,
      "ghal": 4674,
      "meli": 4675,
      "bache": 4676,
      "##الم": 4677,
      "##fer": 4678,
      "khasak": 4679,
      "##dem": 4680,
      "bsahtak": 4681,
      "corona": 4682,
      "ghada": 4683,
      "leb": 4684,
      "rach": 4685,
      "3as": 4686,
      "##khot": 4687,
      "chor": 4688,
      "ida": 4689,
      "chri": 4690,
      "okay": 4691,
      "kd": 4692,
      "thalay": 4693,
      "##roj": 4694,
      "imta": 4695,
      "##awat": 4696,
      "ihaf": 4697,
      "##sam": 4698,
      "siro": 4699,
      "abona": 4700,
      "dayrin": 4701,
      "game": 4702,
      "lbi": 4703,
      "nou": 4704,
      "mhm": 4705,
      "##bir": 4706,
      "tkoun": 4707,
      "##3r": 4708,
      "##ahba": 4709,
      "cas": 4710,
      "going": 4711,
      "vidyo": 4712,
      "##ta7": 4713,
      "##eda": 4714,
      "une": 4715,
      "##bh": 4716,
      "##elo": 4717,
      "##ons": 4718,
      "subs": 4719,
      "##esh": 4720,
      "kan7": 4721,
      "ntmana": 4722,
      "wliti": 4723,
      "tstahli": 4724,
      "##tat": 4725,
      "star": 4726,
      "##anati": 4727,
      "##sic": 4728,
      "del": 4729,
      "##اه": 4730,
      "##b9aw": 4731,
      "gali": 4732,
      "akhty": 4733,
      "bil": 4734,
      "yfr": 4735,
      "tb9a": 4736,
      "kamel": 4737,
      "glti": 4738,
      "nj": 4739,
      "vu": 4740,
      "##اج": 4741,
      "ta3li9": 4742,
      "##edi": 4743,
      "##nah": 4744,
      "matb9ach": 4745,
      "غير": 4746,
      "mous": 4747,
      "ml": 4748,
      "##omi": 4749,
      "##rjo": 4750,
      "الخ": 4751,
      "liy": 4752,
      "lol": 4753,
      "##now": 4754,
      "kayen": 4755,
      "9l": 4756,
      "i9": 4757,
      "much": 4758,
      "shih": 4759,
      "##nti": 4760,
      "hadxi": 4761,
      "##fakak": 4762,
      "tgol": 4763,
      "tla3": 4764,
      "souk": 4765,
      "whay": 4766,
      "zine": 4767,
      "##amak": 4768,
      "bj": 4769,
      "sok": 4770,
      "hamza": 4771,
      "simo": 4772,
      "##yaj": 4773,
      "baba": 4774,
      "khawa": 4775,
      "ma3raft": 4776,
      "mosiba": 4777,
      "vs": 4778,
      "khasha": 4779,
      "chehal": 4780,
      "##ory": 4781,
      "bali": 4782,
      "lflos": 4783,
      "##hr": 4784,
      "mona": 4785,
      "9ar": 4786,
      "##ba7": 4787,
      "islam": 4788,
      "##kat": 4789,
      "kayan": 4790,
      "lat": 4791,
      "kaf": 4792,
      "nkon": 4793,
      "ول": 4794,
      "##ادي": 4795,
      "##xof": 4796,
      "wa7ed": 4797,
      "new": 4798,
      "ijib": 4799,
      "##her": 4800,
      "plus": 4801,
      "##jini": 4802,
      "lem": 4803,
      "##ytk": 4804,
      "##❤❤❤❤❤❤❤❤": 4805,
      "##نس": 4806,
      "##bok": 4807,
      "##joj": 4808,
      "mnha": 4809,
      "##lit": 4810,
      "##ziza": 4811,
      "be3": 4812,
      "khouti": 4813,
      "lek": 4814,
      "l9alb": 4815,
      "##raba": 4816,
      "algerie": 4817,
      "##tin": 4818,
      "##🤲🏻": 4819,
      "vrai": 4820,
      "##😍😘": 4821,
      "adore": 4822,
      "elah": 4823,
      "اب": 4824,
      "داري": 4825,
      "ولا": 4826,
      "##arf": 4827,
      "##yi": 4828,
      "motatabi": 4829,
      "##dina": 4830,
      "لم": 4831,
      "adi": 4832,
      "l3as": 4833,
      "kolha": 4834,
      "mchit": 4835,
      "##halik": 4836,
      "##ouri": 4837,
      "wlid": 4838,
      "##عد": 4839,
      "3arfa": 4840,
      "hdr": 4841,
      "##wya": 4842,
      "##koun": 4843,
      "##ure": 4844,
      "tabar": 4845,
      "tama": 4846,
      "##tni": 4847,
      "zew": 4848,
      "dawla": 4849,
      "chouk": 4850,
      "hawli": 4851,
      "mez": 4852,
      "b9iti": 4853,
      "taman": 4854,
      "meskin": 4855,
      "tri9": 4856,
      "##sat": 4857,
      "ych": 4858,
      "##sba": 4859,
      "dert": 4860,
      "##ther": 4861,
      "em": 4862,
      "##ita": 4863,
      "hriwda": 4864,
      "lon": 4865,
      "zar": 4866,
      "yasine": 4867,
      "##owata": 4868,
      "mano": 4869,
      "lmghrib": 4870,
      "9alb": 4871,
      "ch3ar": 4872,
      "rap": 4873,
      "##aho": 4874,
      "##tro": 4875,
      "##choma": 4876,
      "ngol": 4877,
      "basaha": 4878,
      "amal": 4879,
      "yarebi": 4880,
      "alk": 4881,
      "bek": 4882,
      "nab": 4883,
      "##iman": 4884,
      "tik": 4885,
      "##jam": 4886,
      "##21": 4887,
      "##top": 4888,
      "tsaw": 4889,
      "##كل": 4890,
      "ta7iya": 4891,
      "الي": 4892,
      "wtf": 4893,
      "lbal": 4894,
      "jim": 4895,
      "tmchi": 4896,
      "lmou": 4897,
      "##akech": 4898,
      "##mah": 4899,
      "##tan": 4900,
      "3aycha": 4901,
      "yjib": 4902,
      "joj": 4903,
      "cham": 4904,
      "khdam": 4905,
      "##win": 4906,
      "i3ti": 4907,
      "##tiram": 4908,
      "malak": 4909,
      "##i9a": 4910,
      "مرح": 4911,
      "cher": 4912,
      "soufi": 4913,
      "##hmo": 4914,
      "##iza": 4915,
      "mgharba": 4916,
      "##وف": 4917,
      "##sas": 4918,
      "chok": 4919,
      "nr": 4920,
      "lbas": 4921,
      "7a9": 4922,
      "fna": 4923,
      "maya": 4924,
      "kolxi": 4925,
      "lfi": 4926,
      "mkh": 4927,
      "##ts": 4928,
      "india": 4929,
      "mats": 4930,
      "mashalah": 4931,
      "a3lik": 4932,
      "kolna": 4933,
      "3ami": 4934,
      "##وج": 4935,
      "الص": 4936,
      "tant": 4937,
      "##7ba": 4938,
      "##fdk": 4939,
      "##lasa": 4940,
      "ahsn": 4941,
      "wila": 4942,
      "chm": 4943,
      "ihfdk": 4944,
      "##yb": 4945,
      "##hala": 4946,
      "##ghribi": 4947,
      "##كون": 4948,
      "##itar": 4949,
      "##wak": 4950,
      "##veau": 4951,
      "tchof": 4952,
      "koli": 4953,
      "##طي": 4954,
      "ahsen": 4955,
      "a9": 4956,
      "kemel": 4957,
      "##inak": 4958,
      "##jt": 4959,
      "13": 4960,
      "##50": 4961,
      "lhaja": 4962,
      "##ag": 4963,
      "##9e": 4964,
      "كان": 4965,
      "luck": 4966,
      "##my": 4967,
      "##dal": 4968,
      "ikamal": 4969,
      "##🙏🏻": 4970,
      "18": 4971,
      "katkh": 4972,
      "l9it": 4973,
      "briti": 4974,
      "hap": 4975,
      "derti": 4976,
      "##nokh": 4977,
      "tg": 4978,
      "wsal": 4979,
      "inch": 4980,
      "meb": 4981,
      "تح": 4982,
      "reac": 4983,
      "slamtek": 4984,
      "kat9": 4985,
      "rou": 4986,
      "##lihom": 4987,
      "##amel": 4988,
      "ktr": 4989,
      "##edo": 4990,
      "yeh": 4991,
      "##mt": 4992,
      "##حة": 4993,
      "kari": 4994,
      "meskina": 4995,
      "mchat": 4996,
      "famile": 4997,
      "##fs": 4998,
      "##ano": 4999,
      "mhta": 5000,
      "akhoti": 5001,
      "mabgha": 5002,
      "lwla": 5003,
      "مرحبا": 5004,
      "ofi": 5005,
      "lidar": 5006,
      "l3ab": 5007,
      "wlkin": 5008,
      "awla": 5009,
      "هاد": 5010,
      "oula": 5011,
      "ghizlan": 5012,
      "fham": 5013,
      "player": 5014,
      "lwa9t": 5015,
      "##ps": 5016,
      "9bel": 5017,
      "lms": 5018,
      "##❤❤❤": 5019,
      "##ديو": 5020,
      "jaime": 5021,
      "sbah": 5022,
      "wani3ma": 5023,
      "##iran": 5024,
      "##rha": 5025,
      "##او": 5026,
      "ni3ma": 5027,
      "##ayt": 5028,
      "fil": 5029,
      "kayh": 5030,
      "##rahmo": 5031,
      "##wn": 5032,
      "rayan": 5033,
      "lou": 5034,
      "banti": 5035,
      "##قد": 5036,
      "mha": 5037,
      "yji": 5038,
      "how": 5039,
      "##lawi": 5040,
      "tali": 5041,
      "##lkom": 5042,
      "3ndak": 5043,
      "kom": 5044,
      "y3ti": 5045,
      "##rach": 5046,
      "b3d": 5047,
      "onti": 5048,
      "b4": 5049,
      "smitha": 5050,
      "##amar": 5051,
      "yal": 5052,
      "wlit": 5053,
      "##anti": 5054,
      "bc": 5055,
      "bdit": 5056,
      "bsahtk": 5057,
      "katji": 5058,
      "nasib": 5059,
      "##toni": 5060,
      "##ارك": 5061,
      "##tna": 5062,
      "chafik": 5063,
      "ليك": 5064,
      "14": 5065,
      "##farj": 5066,
      "know": 5067,
      "##jboni": 5068,
      "njar": 5069,
      "hayat": 5070,
      "kat3jbni": 5071,
      "engli": 5072,
      "##عي": 5073,
      "ogh": 5074,
      "telephone": 5075,
      "khu": 5076,
      "s3": 5077,
      "##ae": 5078,
      "l3in": 5079,
      "tahia": 5080,
      "##mel": 5081,
      "lkher": 5082,
      "reaction": 5083,
      "yrham": 5084,
      "makanch": 5085,
      "##i9": 5086,
      "##dhak": 5087,
      "n3as": 5088,
      "mdin": 5089,
      "##7ch": 5090,
      "##ink": 5091,
      "viva": 5092,
      "khatar": 5093,
      "suis": 5094,
      "moh": 5095,
      "yhafdak": 5096,
      "maghribi": 5097,
      "nis": 5098,
      "fana": 5099,
      "##😂🤣": 5100,
      "##aliya": 5101,
      "deri": 5102,
      "hadouk": 5103,
      "الو": 5104,
      "حتى": 5105,
      "tou": 5106,
      "b9aw": 5107,
      "m9aw": 5108,
      "madar": 5109,
      "ykoun": 5110,
      "##gle": 5111,
      "tla9": 5112,
      "fena": 5113,
      "tawil": 5114,
      "kain": 5115,
      "##mail": 5116,
      "chofo": 5117,
      "choha": 5118,
      "m7": 5119,
      "##khas": 5120,
      "ra2": 5121,
      "simana": 5122,
      "##ont": 5123,
      "y9": 5124,
      "zwine": 5125,
      "🇩🇿": 5126,
      "lawal": 5127,
      "##eu": 5128,
      "turk": 5129,
      "الى": 5130,
      "tstahl": 5131,
      "2020": 5132,
      "snin": 5133,
      "##yalat": 5134,
      "##nit": 5135,
      "bhala": 5136,
      "tkoni": 5137,
      "lmoslimin": 5138,
      "tet": 5139,
      "##2a": 5140,
      "##boni": 5141,
      "ychafi": 5142,
      "7ad": 5143,
      "##wa9": 5144,
      "##line": 5145,
      "lgha": 5146,
      "seb": 5147,
      "respe": 5148,
      "mo3": 5149,
      "lkhot": 5150,
      "ps": 5151,
      "sel": 5152,
      "bghat": 5153,
      "lyou": 5154,
      "english": 5155,
      "moi": 5156,
      "##daw": 5157,
      "yasin": 5158,
      "##وني": 5159,
      "pay": 5160,
      "lwl": 5161,
      "wash": 5162,
      "max": 5163,
      "niveau": 5164,
      "dialek": 5165,
      "bjoj": 5166,
      "##nich": 5167,
      "ichafi": 5168,
      "3fak": 5169,
      "gat": 5170,
      "##uma": 5171,
      "bkitini": 5172,
      "bash": 5173,
      "##tani": 5174,
      "##ربية": 5175,
      "oz": 5176,
      "##wahd": 5177,
      "dhak": 5178,
      "ihdi": 5179,
      "mohanad": 5180,
      "##yar": 5181,
      "yaj": 5182,
      "lis": 5183,
      "le3": 5184,
      "ymk": 5185,
      "gen": 5186,
      "b9": 5187,
      "hamdolah": 5188,
      "ylh": 5189,
      "##ces": 5190,
      "jn": 5191,
      "kbar": 5192,
      "##raw": 5193,
      "deja": 5194,
      "tfr": 5195,
      "fen": 5196,
      "dayman": 5197,
      "moum": 5198,
      "😍😘": 5199,
      "##hna": 5200,
      "##lna": 5201,
      "taz": 5202,
      "##doub": 5203,
      "##hima": 5204,
      "ma3rft": 5205,
      "koya": 5206,
      "kmel": 5207,
      "##oro": 5208,
      "waldak": 5209,
      "3andna": 5210,
      "kadiri": 5211,
      "fya": 5212,
      "nmout": 5213,
      "16": 5214,
      "tabrk": 5215,
      "tahya": 5216,
      "osafi": 5217,
      "fn": 5218,
      "##جي": 5219,
      "##e7": 5220,
      "silsi": 5221,
      "##user": 5222,
      "mzaw": 5223,
      "##رد": 5224,
      "3like": 5225,
      "##ros": 5226,
      "sma3": 5227,
      "##hel": 5228,
      "jaza": 5229,
      "d3m": 5230,
      "wlat": 5231,
      "ax": 5232,
      "king": 5233,
      "##2lah": 5234,
      "mane": 5235,
      "hdi": 5236,
      "brother": 5237,
      "choukran": 5238,
      "bos": 5239,
      "##dani": 5240,
      "##oran": 5241,
      "wa9t": 5242,
      "##zan": 5243,
      "bot": 5244,
      "katban": 5245,
      "mab9a": 5246,
      "rec": 5247,
      "aflam": 5248,
      "bts": 5249,
      "katham": 5250,
      "madr": 5251,
      "manak": 5252,
      "tastahli": 5253,
      "b3a9li": 5254,
      "va": 5255,
      "انت": 5256,
      "الد": 5257,
      "khasek": 5258,
      "بي": 5259,
      "algeri": 5260,
      "بصدق": 5261,
      "time": 5262,
      "yfarhak": 5263,
      "lwakil": 5264,
      "fikra": 5265,
      "##rs": 5266,
      "dwi": 5267,
      "nta3": 5268,
      "chitan": 5269,
      "nchlh": 5270,
      "lfo9": 5271,
      "lar": 5272,
      "smito": 5273,
      "besaha": 5274,
      "##fich": 5275,
      "ahbibti": 5276,
      "flo": 5277,
      "ahm": 5278,
      "alham": 5279,
      "rom": 5280,
      "mus": 5281,
      "ahla": 5282,
      "gamer": 5283,
      "##wlek": 5284,
      "lfar": 5285,
      "##oume": 5286,
      "mchiti": 5287,
      "##osos": 5288,
      "sc": 5289,
      "##loli": 5290,
      "dialo": 5291,
      "##9ti": 5292,
      "nse": 5293,
      "a3la": 5294,
      "oli": 5295,
      "##diri": 5296,
      "pf": 5297,
      "##وك": 5298,
      "مغ": 5299,
      "sawt": 5300,
      "nmchi": 5301,
      "tebark": 5302,
      "chwya": 5303,
      "gran": 5304,
      "pos": 5305,
      "habib": 5306,
      "makaynch": 5307,
      "cr": 5308,
      "##ha9": 5309,
      "##dy": 5310,
      "##ido": 5311,
      "nour": 5312,
      "3endi": 5313,
      "yab": 5314,
      "##inat": 5315,
      "وت": 5316,
      "med": 5317,
      "##ins": 5318,
      "##ajbini": 5319,
      "3tini": 5320,
      "##ours": 5321,
      "nob": 5322,
      "##lom": 5323,
      "sob": 5324,
      "##ebok": 5325,
      "hena": 5326,
      "##fou": 5327,
      "lkhraz": 5328,
      "##tube": 5329,
      "##view": 5330,
      "thanks": 5331,
      "##اس": 5332,
      "##ga3": 5333,
      "nichan": 5334,
      "sa3id": 5335,
      "tis": 5336,
      "7as": 5337,
      "##زاي": 5338,
      "oj": 5339,
      "coup": 5340,
      "7aw": 5341,
      "pla": 5342,
      "##pal": 5343,
      "##chak": 5344,
      "dakhlo": 5345,
      "2m": 5346,
      "bnti": 5347,
      "khrj": 5348,
      "tawfi9": 5349,
      "##يات": 5350,
      "baby": 5351,
      "ikml": 5352,
      "ket": 5353,
      "يع": 5354,
      "pubg": 5355,
      "wkha": 5356,
      "##نات": 5357,
      "##اط": 5358,
      "yhfdk": 5359,
      "##ino": 5360,
      "##fa9": 5361,
      "sift": 5362,
      "yhfad": 5363,
      "##tahal": 5364,
      "##gra": 5365,
      "lad": 5366,
      "##3jbni": 5367,
      "babak": 5368,
      "lmochkil": 5369,
      "3lax": 5370,
      "##chri": 5371,
      "jrb": 5372,
      "##ise": 5373,
      "##dhom": 5374,
      "tbrklh": 5375,
      "##if": 5376,
      "hamdou": 5377,
      "ikhlikom": 5378,
      "عليك": 5379,
      "##شترك": 5380,
      "dahaktini": 5381,
      "fri": 5382,
      "kanet": 5383,
      "lif": 5384,
      "عندي": 5385,
      "kane": 5386,
      "iji": 5387,
      "wasfa": 5388,
      "3alay": 5389,
      "tzaw": 5390,
      "sv": 5391,
      "hy": 5392,
      "lmima": 5393,
      "##akch": 5394,
      "##hma9": 5395,
      "music": 5396,
      "ykml": 5397,
      "5as": 5398,
      "lahy": 5399,
      "n7": 5400,
      "tjib": 5401,
      "natmana": 5402,
      "matb9aych": 5403,
      "##khar": 5404,
      "##hin": 5405,
      "wldi": 5406,
      "twal": 5407,
      "zu": 5408,
      "ont": 5409,
      "aktar": 5410,
      "##ance": 5411,
      "##sr": 5412,
      "respect": 5413,
      "##مد": 5414,
      "nchouf": 5415,
      "##badlo": 5416,
      "da7k": 5417,
      "yshl": 5418,
      "##itch": 5419,
      "mf": 5420,
      "##ity": 5421,
      "siya": 5422,
      "##les": 5423,
      "los": 5424,
      "##enti": 5425,
      "lwlidat": 5426,
      "labnat": 5427,
      "akid": 5428,
      "##hou": 5429,
      "kil": 5430,
      "dem": 5431,
      "##maj": 5432,
      "me3ak": 5433,
      "lbant": 5434,
      "##eya": 5435,
      "bed": 5436,
      "wes": 5437,
      "zahra": 5438,
      "9lb": 5439,
      "##halk": 5440,
      "marocain": 5441,
      "subscri": 5442,
      "كن": 5443,
      "ijazik": 5444,
      "##oka": 5445,
      "##kn": 5446,
      "##for": 5447,
      "ib": 5448,
      "inshalah": 5449,
      "##9i3": 5450,
      "frht": 5451,
      "ishl": 5452,
      "machae": 5453,
      "paris": 5454,
      "onta": 5455,
      "nsa": 5456,
      "##قول": 5457,
      "##ofi": 5458,
      "kanmout": 5459,
      "ism": 5460,
      "##olchi": 5461,
      "ayoub": 5462,
      "olm": 5463,
      "##ود": 5464,
      "inter": 5465,
      "hdak": 5466,
      "hani": 5467,
      "about": 5468,
      "wlidatk": 5469,
      "mine": 5470,
      "##tb": 5471,
      "houma": 5472,
      "chab": 5473,
      "##ra7": 5474,
      "##irat": 5475,
      "مح": 5476,
      "##hm9": 5477,
      "kaya": 5478,
      "samira": 5479,
      "##🇩🇿🇩🇿🇩🇿🇩🇿": 5480,
      "##bhana": 5481,
      "dab": 5482,
      "ash": 5483,
      "khatir": 5484,
      "nef": 5485,
      "salem": 5486,
      "##بر": 5487,
      "##bi3": 5488,
      "sy": 5489,
      "t2": 5490,
      "##liti": 5491,
      "yst": 5492,
      "##ople": 5493,
      "tna": 5494,
      "camera": 5495,
      "3lk": 5496,
      "##niti": 5497,
      "finah": 5498,
      "mrat": 5499,
      "yhdi": 5500,
      "17": 5501,
      "machakil": 5502,
      "rm": 5503,
      "fl3alam": 5504,
      "yj": 5505,
      "##dad": 5506,
      "nfs": 5507,
      "bala": 5508,
      "kifma": 5509,
      "لك": 5510,
      "fab": 5511,
      "mois": 5512,
      "##cas": 5513,
      "matab": 5514,
      "##do3": 5515,
      "sari": 5516,
      "3alikom": 5517,
      "kmal": 5518,
      "bsha": 5519,
      "##اص": 5520,
      "##hili": 5521,
      "##aya": 5522,
      "nchofo": 5523,
      "seha": 5524,
      "##ayd": 5525,
      "libgha": 5526,
      "omak": 5527,
      "##khe": 5528,
      "matm": 5529,
      "tabonaw": 5530,
      "bsahtkom": 5531,
      "who": 5532,
      "trop": 5533,
      "ykamal": 5534,
      "##ily": 5535,
      "##الي": 5536,
      "dow": 5537,
      "kayban": 5538,
      "laho": 5539,
      "9tl": 5540,
      "##عب": 5541,
      "##wina": 5542,
      "##alm": 5543,
      "##khr": 5544,
      "4ir": 5545,
      "haya": 5546,
      "##9ek": 5547,
      "ndirha": 5548,
      "##db": 5549,
      "our": 5550,
      "bzef": 5551,
      "basma": 5552,
      "white4": 5553,
      "iban": 5554,
      "rai": 5555,
      "tili": 5556,
      "hb": 5557,
      "ragh": 5558,
      "raz": 5559,
      "dkha": 5560,
      "hapy": 5561,
      "##gr": 5562,
      "##hkom": 5563,
      "##yfa": 5564,
      "##khti": 5565,
      "mzi": 5566,
      "bdhk": 5567,
      "اك": 5568,
      "walidin": 5569,
      "kr": 5570,
      "##dihach": 5571,
      "make": 5572,
      "##atha": 5573,
      "##9ar": 5574,
      "##awa": 5575,
      "hanya": 5576,
      "##wer": 5577,
      "matkha": 5578,
      "cla": 5579,
      "بغ": 5580,
      "bladna": 5581,
      "marakech": 5582,
      "army": 5583,
      "jawbni": 5584,
      "##tob": 5585,
      "##fdo": 5586,
      "##fed": 5587,
      "acha": 5588,
      "##rni": 5589,
      "وم": 5590,
      "tina": 5591,
      "kiday": 5592,
      "hitach": 5593,
      "##chra": 5594,
      "part": 5595,
      "chti": 5596,
      "tok": 5597,
      "##اع": 5598,
      "واله": 5599,
      "##ikha": 5600,
      "likoum": 5601,
      "khayr": 5602,
      "twahch": 5603,
      "24": 5604,
      "lba3diyatkom": 5605,
      "nha": 5606,
      "hel": 5607,
      "tend": 5608,
      "get": 5609,
      "svp": 5610,
      "dyalhom": 5611,
      "ichafiha": 5612,
      "##by": 5613,
      "##dol": 5614,
      "adam": 5615,
      "leh": 5616,
      "kter": 5617,
      "farah": 5618,
      "##fon": 5619,
      "fuck": 5620,
      "lhram": 5621,
      "why": 5622,
      "tbad": 5623,
      "khed": 5624,
      "maymk": 5625,
      "hasa": 5626,
      "xd": 5627,
      "3jbni": 5628,
      "cli": 5629,
      "##ando": 5630,
      "agh": 5631,
      "##hich": 5632,
      "##brik": 5633,
      "lokan": 5634,
      "##mi3": 5635,
      "lharba": 5636,
      "kou": 5637,
      "##aba9a": 5638,
      "lflous": 5639,
      "mant": 5640,
      "so9": 5641,
      "##jin": 5642,
      "##7ek": 5643,
      "kanbghi": 5644,
      "yban": 5645,
      "##3ay": 5646,
      "beli": 5647,
      "dek": 5648,
      "##rih": 5649,
      "salma": 5650,
      "3awd": 5651,
      "lmon": 5652,
      "silsila": 5653,
      "##سم": 5654,
      "##ash": 5655,
      "bisous": 5656,
      "##homa": 5657,
      "facebok": 5658,
      "oha": 5659,
      "##reat": 5660,
      "jan": 5661,
      "sba": 5662,
      "tbarek": 5663,
      "bir": 5664,
      "##bna": 5665,
      "bouz": 5666,
      "##sah": 5667,
      "اش": 5668,
      "hnaya": 5669,
      "people": 5670,
      "kem": 5671,
      "lmara": 5672,
      "frask": 5673,
      "##wna": 5674,
      "alam": 5675,
      "lawla": 5676,
      "bez": 5677,
      "##ung": 5678,
      "##🇧🇩": 5679,
      "##yatk": 5680,
      "twas": 5681,
      "malki": 5682,
      "makrahtch": 5683,
      "lahla": 5684,
      "kyn": 5685,
      "kim": 5686,
      "kifa": 5687,
      "lmalik": 5688,
      "ga3ma": 5689,
      "deyal": 5690,
      "twhch": 5691,
      "##fto": 5692,
      "lwah": 5693,
      "isahl": 5694,
      "tek": 5695,
      "frah": 5696,
      "wab": 5697,
      "toi": 5698,
      "ayi": 5699,
      "tech": 5700,
      "##صل": 5701,
      "##حي": 5702,
      "mat9": 5703,
      "##atan": 5704,
      "راه": 5705,
      "zou": 5706,
      "motabi": 5707,
      "##ghreb": 5708,
      "9isa": 5709,
      "##abt": 5710,
      "mafhm": 5711,
      "fou": 5712,
      "##ghani": 5713,
      "##did": 5714,
      "3andhom": 5715,
      "salat": 5716,
      "##elt": 5717,
      "7al9a": 5718,
      "ifarhak": 5719,
      "laila": 5720,
      "##aych": 5721,
      "##🇫🇷": 5722,
      "ave": 5723,
      "##atch": 5724,
      "5ay": 5725,
      "##3iya": 5726,
      "rada": 5727,
      "##wafa": 5728,
      "##jazikom": 5729,
      "wa5a": 5730,
      "sahra": 5731,
      "dislike": 5732,
      "every": 5733,
      "y5": 5734,
      "dkhli": 5735,
      "3ab": 5736,
      "nwara": 5737,
      "شكرا": 5738,
      "ghe": 5739,
      "smiya": 5740,
      "##nina": 5741,
      "mala": 5742,
      "nz": 5743,
      "ntina": 5744,
      "kat3jbini": 5745,
      "sahara": 5746,
      "rake": 5747,
      "jadid": 5748,
      "h😂": 5749,
      "وب": 5750,
      "##nz": 5751,
      "##dro": 5752,
      "##rich": 5753,
      "kayji": 5754,
      "##rik": 5755,
      "khar": 5756,
      "##alti": 5757,
      "##ence": 5758,
      "ofici": 5759,
      "9aw": 5760,
      "gl": 5761,
      "##afih": 5762,
      "douk": 5763,
      "vo": 5764,
      "lhi": 5765,
      "lakin": 5766,
      "dali": 5767,
      "##alab": 5768,
      "##tona": 5769,
      "sahal": 5770,
      "عندك": 5771,
      "##vid": 5772,
      "gr": 5773,
      "realy": 5774,
      "واحد": 5775,
      "lahoma": 5776,
      "yjazik": 5777,
      "kor": 5778,
      "lmaw": 5779,
      "##adia": 5780,
      "##zalin": 5781,
      "khashom": 5782,
      "mtab3ak": 5783,
      "lhamdolah": 5784,
      "oujda": 5785,
      "bakitini": 5786,
      "wakh": 5787,
      "masira": 5788,
      "##doz": 5789,
      "l3id": 5790,
      "##rank": 5791,
      "mabgh": 5792,
      "souka": 5793,
      "lkar": 5794,
      "fine": 5795,
      "nati": 5796,
      "له": 5797,
      "3ail": 5798,
      "rire": 5799,
      "khasna": 5800,
      "##olm": 5801,
      "ohad": 5802,
      "الن": 5803,
      "3a2": 5804,
      "rachid": 5805,
      "lyoum": 5806,
      "##ven": 5807,
      "sabab": 5808,
      "rh": 5809,
      "9owata": 5810,
      "ohta": 5811,
      "3ndna": 5812,
      "hom": 5813,
      "yet": 5814,
      "lmal": 5815,
      "testah": 5816,
      "##fdek": 5817,
      "bnita": 5818,
      "ysahl": 5819,
      "lhala": 5820,
      "##rja3": 5821,
      "they": 5822,
      "jito": 5823,
      "ramdan": 5824,
      "bazf": 5825,
      "10k": 5826,
      "did": 5827,
      "##ghya": 5828,
      "review": 5829,
      "##rabi": 5830,
      "##lok": 5831,
      "ce": 5832,
      "##atar": 5833,
      "mayt": 5834,
      "3arfin": 5835,
      "60": 5836,
      "##دم": 5837,
      "##outa": 5838,
      "##yah": 5839,
      "##dama": 5840,
      "3zaz": 5841,
      "##hoch": 5842,
      "##ens": 5843,
      "tanger": 5844,
      "bang": 5845,
      "##ula": 5846,
      "##id9": 5847,
      "3ch": 5848,
      "insana": 5849,
      "##emi": 5850,
      "montage": 5851,
      "hin": 5852,
      "kent": 5853,
      "بز": 5854,
      "##wa3": 5855,
      "madihach": 5856,
      "lvidyo": 5857,
      "watch": 5858,
      "katgol": 5859,
      "vd": 5860,
      "##wsl": 5861,
      "o3la": 5862,
      "chad": 5863,
      "lyoma": 5864,
      "3jbatni": 5865,
      "iwf": 5866,
      "galti": 5867,
      "##home": 5868,
      "nswlk": 5869,
      "ti9a": 5870,
      "##walid": 5871,
      "##alt": 5872,
      "mne": 5873,
      "tgh": 5874,
      "ywf": 5875,
      "s7ab": 5876,
      "lkhra": 5877,
      "motatabi3a": 5878,
      "##خلي": 5879,
      "jah": 5880,
      "mashi": 5881,
      "lcom": 5882,
      "tabi3i": 5883,
      "وي": 5884,
      "##9ich": 5885,
      "##bra": 5886,
      "##hfad": 5887,
      "ichar": 5888,
      "khes": 5889,
      "maghribiya": 5890,
      "lhak": 5891,
      "lhal9a": 5892,
      "oraj": 5893,
      "bilal": 5894,
      "tach": 5895,
      "##3awd": 5896,
      "هي": 5897,
      "باش": 5898,
      "wlidatak": 5899,
      "##king": 5900,
      "irhm": 5901,
      "3lya": 5902,
      "mziw": 5903,
      "lor": 5904,
      "wldk": 5905,
      "ma3ndi": 5906,
      "5ouya": 5907,
      "##ri9": 5908,
      "##yach": 5909,
      "##isi": 5910,
      "##طب": 5911,
      "##ires": 5912,
      "khtak": 5913,
      "##batni": 5914,
      "##رت": 5915,
      "##arni": 5916,
      "##chakil": 5917,
      "kanbghik": 5918,
      "zawj": 5919,
      "##bida": 5920,
      "khayb": 5921,
      "##ken": 5922,
      "##zk": 5923,
      "galo": 5924,
      "benti": 5925,
      "zad": 5926,
      "3ala9a": 5927,
      "waliti": 5928,
      "##2alah": 5929,
      "فال": 5930,
      "##yto": 5931,
      "ru": 5932,
      "##7an": 5933,
      "gta": 5934,
      "cheft": 5935,
      "ikhaliha": 5936,
      "kdob": 5937,
      "##rob": 5938,
      "ka3": 5939,
      "walakine": 5940,
      "##senpai": 5941,
      "dit": 5942,
      "sma": 5943,
      "kan3": 5944,
      "tbarklh": 5945,
      "ausi": 5946,
      "smah": 5947,
      "3rafti": 5948,
      "##bas": 5949,
      "##yf": 5950,
      "nasi": 5951,
      "nem": 5952,
      "binat": 5953,
      "flh": 5954,
      "khalih": 5955,
      "##ou3": 5956,
      "##anch": 5957,
      "za": 5958,
      "##رية": 5959,
      "bditi": 5960,
      "##likoum": 5961,
      "##🇲🇦🇲🇦🇲🇦🇲🇦🇲🇦🇲🇦🇲🇦🇲🇦": 5962,
      "merhba": 5963,
      "fait": 5964,
      "yaf": 5965,
      "##khra": 5966,
      "rahe": 5967,
      "tema": 5968,
      "nmot": 5969,
      "3aychin": 5970,
      "maghreb": 5971,
      "##ilah": 5972,
      "##9alb": 5973,
      "job": 5974,
      "ma3ar": 5975,
      "couple": 5976,
      "alahe": 5977,
      "l9an": 5978,
      "hor": 5979,
      "bcp": 5980,
      "milion": 5981,
      "yatik": 5982,
      "##bih": 5983,
      "milad": 5984,
      "##9ch": 5985,
      "##elti": 5986,
      "##url": 5987,
      "any": 5988,
      "3wach": 5989,
      "me3": 5990,
      "kl": 5991,
      "##taha": 5992,
      "choufi": 5993,
      "##سن": 5994,
      "l3z": 5995,
      "super": 5996,
      "ngolik": 5997,
      "ishal": 5998,
      "wjah": 5999,
      "##eke": 6000,
      "lban": 6001,
      "ihfdak": 6002,
      "badr": 6003,
      "b9it": 6004,
      "##لب": 6005,
      "##وق": 6006,
      "makt": 6007,
      "##ayna": 6008,
      "##up": 6009,
      "diam": 6010,
      "sobhana": 6011,
      "##cel": 6012,
      "##ينة": 6013,
      "##kich": 6014,
      "fha": 6015,
      "##onti": 6016,
      "##ei": 6017,
      "hali": 6018,
      "moch": 6019,
      "wa7ad": 6020,
      "kdab": 6021,
      "tob": 6022,
      "##eto": 6023,
      "ma3andi": 6024,
      "t5": 6025,
      "##3tiha": 6026,
      "d9i9a": 6027,
      "sof": 6028,
      "dartha": 6029,
      "tamtil": 6030,
      "hakda": 6031,
      "den": 6032,
      "##وس": 6033,
      "##raya": 6034,
      "##ekom": 6035,
      "##ghir": 6036,
      "##doch": 6037,
      "##chal": 6038,
      "po": 6039,
      "mok": 6040,
      "##able": 6041,
      "first": 6042,
      "##rbi9": 6043,
      "##sb": 6044,
      "mdina": 6045,
      "##jaza": 6046,
      "pers": 6047,
      "ykhaliha": 6048,
      "chop": 6049,
      "kharj": 6050,
      "f7al": 6051,
      "bhalak": 6052,
      "rajlha": 6053,
      "##👍🏼": 6054,
      "youtub": 6055,
      "jb": 6056,
      "rajlek": 6057,
      "bri": 6058,
      "gra": 6059,
      "##ras": 6060,
      "suport": 6061,
      "zan": 6062,
      "dirha": 6063,
      "osama": 6064,
      "neta": 6065,
      "dm": 6066,
      "##abha": 6067,
      "chu": 6068,
      "europa": 6069,
      "##itra": 6070,
      "matn": 6071,
      "cou": 6072,
      "co": 6073,
      "قناة": 6074,
      "gar": 6075,
      "##bila": 6076,
      "nakhnokh": 6077,
      "gadi": 6078,
      "##artini": 6079,
      "smiti": 6080,
      "مس": 6081,
      "##3af": 6082,
      "morocan": 6083,
      "name": 6084,
      "##araha": 6085,
      "biya": 6086,
      "khraj": 6087,
      "likan": 6088,
      "##9i9": 6089,
      "nty": 6090,
      "chopi": 6091,
      "faw": 6092,
      "##adam": 6093,
      "raskom": 6094,
      "doma": 6095,
      "manha": 6096,
      "fom": 6097,
      "inst": 6098,
      "nmra": 6099,
      "sol": 6100,
      "ychafiha": 6101,
      "ma3ak": 6102,
      "alih": 6103,
      "بزاف": 6104,
      "set": 6105,
      "yw": 6106,
      "eli": 6107,
      "makn": 6108,
      "rdi": 6109,
      "25": 6110,
      "##tas": 6111,
      "d5": 6112,
      "##ente": 6113,
      "almalik": 6114,
      "fans": 6115,
      "jm": 6116,
      "tfrj": 6117,
      "chakhs": 6118,
      "المغرب": 6119,
      "ost": 6120,
      "albnat": 6121,
      "iw": 6122,
      "ات": 6123,
      "dray": 6124,
      "yla": 6125,
      "b3id": 6126,
      "##9ha": 6127,
      "##wra": 6128,
      "##9dar": 6129,
      "ker": 6130,
      "karam": 6131,
      "hsab": 6132,
      "kul": 6133,
      "lchi": 6134,
      "wlk": 6135,
      "##dmo": 6136,
      "9ab": 6137,
      "##lem": 6138,
      "##toha": 6139,
      "mai": 6140,
      "akhuya": 6141,
      "##ould": 6142,
      "vidi": 6143,
      "lama": 6144,
      "zab": 6145,
      "hamd": 6146,
      "work": 6147,
      "ma3raftch": 6148,
      "rk": 6149,
      "##ndi": 6150,
      "##tihom": 6151,
      "##biha": 6152,
      "##وت": 6153,
      "kaykh": 6154,
      "##odam": 6155,
      "ma3ndich": 6156,
      "mostawa": 6157,
      "msg": 6158,
      "blah": 6159,
      "stu": 6160,
      "golti": 6161,
      "nhab": 6162,
      "great": 6163,
      "##elb": 6164,
      "andak": 6165,
      "##sm": 6166,
      "kaydiro": 6167,
      "yahdi": 6168,
      "##andi": 6169,
      "qui": 6170,
      "l3asir": 6171,
      "mrahba": 6172,
      "##tyle": 6173,
      "hr": 6174,
      "##ause": 6175,
      "reb": 6176,
      "##sel": 6177,
      "الاشتراك": 6178,
      "tsw": 6179,
      "chak": 6180,
      "most": 6181,
      "##hadro": 6182,
      "khasni": 6183,
      "laz": 6184,
      "##khat": 6185,
      "##alo": 6186,
      "##tag": 6187,
      "##9awch": 6188,
      "dahka": 6189,
      "هذا": 6190,
      "##fa3": 6191,
      "##قط": 6192,
      "##khi": 6193,
      "dokhli": 6194,
      "da9": 6195,
      "avec": 6196,
      "##yate": 6197,
      "ro3b": 6198,
      "##🤲🏻🤲🏻": 6199,
      "almo": 6200,
      "tout": 6201,
      "##walo": 6202,
      "lati": 6203,
      "##itha": 6204,
      "##maghrib": 6205,
      "3andkom": 6206,
      "mout": 6207,
      "andk": 6208,
      "##حال": 6209,
      "alwat": 6210,
      "##wia": 6211,
      "##fid": 6212,
      "f3az": 6213,
      "##alan": 6214,
      "##kono": 6215,
      "iwaf9ak": 6216,
      "asl": 6217,
      "barak": 6218,
      "##9l": 6219,
      "him": 6220,
      "##okak": 6221,
      "sra": 6222,
      "inchalh": 6223,
      "tahadi": 6224,
      "only": 6225,
      "nos": 6226,
      "##9olo": 6227,
      "##arti": 6228,
      "3jabni": 6229,
      "jama": 6230,
      "wha": 6231,
      "##barti": 6232,
      "bghaw": 6233,
      "lb3diyatkom": 6234,
      "malouli": 6235,
      "3end": 6236,
      "##gan": 6237,
      "ten": 6238,
      "##ono": 6239,
      "##hor": 6240,
      "##3afik": 6241,
      "##9li": 6242,
      "sa3dat": 6243,
      "holan": 6244,
      "اف": 6245,
      "bdo": 6246,
      "farh": 6247,
      "9dam": 6248,
      "fch": 6249,
      "ph": 6250,
      "wik": 6251,
      "##zn": 6252,
      "##tali": 6253,
      "daiman": 6254,
      "alkha": 6255,
      "lot": 6256,
      "##jina": 6257,
      "mzl": 6258,
      "aziz": 6259,
      "الان": 6260,
      "##3iw": 6261,
      "##مل": 6262,
      "raja": 6263,
      "walida": 6264,
      "imp": 6265,
      "gala": 6266,
      "##rif": 6267,
      "thlay": 6268,
      "laj": 6269,
      "kti": 6270,
      "younes": 6271,
      "ikoun": 6272,
      "gan": 6273,
      "##elk": 6274,
      "btawfi9": 6275,
      "hes": 6276,
      "يح": 6277,
      "ghire": 6278,
      "##uny": 6279,
      "lrm": 6280,
      "##aria": 6281,
      "wkan": 6282,
      "##ajiha": 6283,
      "yach": 6284,
      "imane": 6285,
      "lhabs": 6286,
      "##fal": 6287,
      "##mo3in": 6288,
      "##bya": 6289,
      "##fj": 6290,
      "fli": 6291,
      "##pt": 6292,
      "ntiya": 6293,
      "##htawa": 6294,
      "sda3": 6295,
      "##eta": 6296,
      "traba": 6297,
      "3ach": 6298,
      "3aila": 6299,
      "##2al": 6300,
      "bet": 6301,
      "##bile": 6302,
      "kanch": 6303,
      "aba": 6304,
      "##adar": 6305,
      "##late": 6306,
      "##po": 6307,
      "##وي": 6308,
      "soufiane": 6309,
      "mkha": 6310,
      "chek": 6311,
      "glt": 6312,
      "mnhom": 6313,
      "n3raf": 6314,
      "9s": 6315,
      "katha": 6316,
      "tban": 6317,
      "yala": 6318,
      "ayam": 6319,
      "aymansenpai": 6320,
      "malkom": 6321,
      "##نة": 6322,
      "مش": 6323,
      "ant": 6324,
      "elm": 6325,
      "##ie": 6326,
      "##naha": 6327,
      "khy": 6328,
      "mnawra": 6329,
      "tor": 6330,
      "##lar": 6331,
      "nsewlek": 6332,
      "more": 6333,
      "fhm": 6334,
      "##chima": 6335,
      "##hanin": 6336,
      "mly": 6337,
      "##3tih": 6338,
      "fransa": 6339,
      "##60": 6340,
      "##ولي": 6341,
      "3ibad": 6342,
      "yed": 6343,
      "code": 6344,
      "lnas": 6345,
      "##يم": 6346,
      "##rini": 6347,
      "##pir": 6348,
      "huwa": 6349,
      "##وب": 6350,
      "mab9at": 6351,
      "mezyan": 6352,
      "##tora": 6353,
      "habibati": 6354,
      "##eur": 6355,
      "gon": 6356,
      "mlk": 6357,
      "yalh": 6358,
      "aliha": 6359,
      "site": 6360,
      "##7na": 6361,
      "##adr": 6362,
      "##eno": 6363,
      "##abil": 6364,
      "lhla": 6365,
      "yrbi": 6366,
      "tfaraj": 6367,
      "##ds": 6368,
      "##ahkom": 6369,
      "yarb": 6370,
      "khaliha": 6371,
      "blm": 6372,
      "akhy": 6373,
      "m3ya": 6374,
      "matat": 6375,
      "mzyana": 6376,
      "rlm": 6377,
      "lma9": 6378,
      "fort": 6379,
      "iphone": 6380,
      "ma3andich": 6381,
      "##akol": 6382,
      "tabon": 6383,
      "maghadich": 6384,
      "meme": 6385,
      "akhor": 6386,
      "##ounia": 6387,
      "7m": 6388,
      "sbab": 6389,
      "sobhan": 6390,
      "afdal": 6391,
      "abde": 6392,
      "dakhla": 6393,
      "wkh": 6394,
      "##ahim": 6395,
      "hasbiya": 6396,
      "wnti": 6397,
      "2019": 6398,
      "##🇧🇩🇧🇩": 6399,
      "bsahtek": 6400,
      "##yen": 6401,
      "##12": 6402,
      "raghib": 6403,
      "wlakin": 6404,
      "3ini": 6405,
      "##hdar": 6406,
      "##جب": 6407,
      "##كت": 6408,
      "chafi": 6409,
      "##tl": 6410,
      "likadir": 6411,
      "inchaelah": 6412,
      "ikhlik": 6413,
      "whad": 6414,
      "##edeo": 6415,
      "baha": 6416,
      "##inch": 6417,
      "lid": 6418,
      "lho": 6419,
      "##2an": 6420,
      "حبي": 6421,
      "##hum": 6422,
      "ihfdkom": 6423,
      "thla": 6424,
      "ahmed": 6425,
      "##come": 6426,
      "adr": 6427,
      "الغ": 6428,
      "lyom": 6429,
      "hasna": 6430,
      "الجزاي": 6431,
      "##toch": 6432,
      "##howa": 6433,
      "asmae": 6434,
      "mimti": 6435,
      "hawla": 6436,
      "##o9ba": 6437,
      "kayk": 6438,
      "##jr": 6439,
      "real": 6440,
      "rem": 6441,
      "tit": 6442,
      "##ويا": 6443,
      "lwasfa": 6444,
      "##laha": 6445,
      "banglad": 6446,
      "##vedio": 6447,
      "##ader": 6448,
      "ntbadlo": 6449,
      "##liw": 6450,
      "3lah": 6451,
      "skh": 6452,
      "tanja": 6453,
      "3t": 6454,
      "hma9": 6455,
      "chin": 6456,
      "lbab": 6457,
      "machaelah": 6458,
      "i3dam": 6459,
      "wajhak": 6460,
      "out": 6461,
      "sarah": 6462,
      "algeria": 6463,
      "drtha": 6464,
      "fid": 6465,
      "jiha": 6466,
      "##hda": 6467,
      "mobarak": 6468,
      "kheir": 6469,
      "stop": 6470,
      "##ema": 6471,
      "##imo": 6472,
      "oi": 6473,
      "wf": 6474,
      "##loch": 6475,
      "mg": 6476,
      "##afe": 6477,
      "bka": 6478,
      "s3dat": 6479,
      "tab3": 6480,
      "##40": 6481,
      "arabi": 6482,
      "##ayb": 6483,
      "lila": 6484,
      "mesage": 6485,
      "##sana": 6486,
      "dkhal": 6487,
      "hint": 6488,
      "dina": 6489,
      "##zian": 6490,
      "hmar": 6491,
      "##فس": 6492,
      "av": 6493,
      "sta": 6494,
      "##mis": 6495,
      "9lbi": 6496,
      "##ajaj": 6497,
      "salah": 6498,
      "som": 6499,
      "hadou": 6500,
      "##riha": 6501,
      "mod": 6502,
      "rif": 6503,
      "mimtak": 6504,
      "##fia": 6505,
      "kaych": 6506,
      "mrad": 6507,
      "niya": 6508,
      "##مان": 6509,
      "me3a": 6510,
      "3jab": 6511,
      "lal": 6512,
      "finma": 6513,
      "##iko": 6514,
      "intro": 6515,
      "nrbah": 6516,
      "kat3ajbini": 6517,
      "##yon": 6518,
      "sali7a": 6519,
      "mtaf9": 6520,
      "##3awno": 6521,
      "nb": 6522,
      "##oki": 6523,
      "اخي": 6524,
      "goul": 6525,
      "lma3": 6526,
      "lblasa": 6527,
      "moul": 6528,
      "subscribe": 6529,
      "##صف": 6530,
      "##koni": 6531,
      "##ple": 6532,
      "jana": 6533,
      "o9s": 6534,
      "##jbo": 6535,
      "bachar": 6536,
      "mta": 6537,
      "##btha": 6538,
      "katkha": 6539,
      "##stahl": 6540,
      "nzid": 6541,
      "nadia": 6542,
      "##tili": 6543,
      "##ahm": 6544,
      "blh": 6545,
      "##vel": 6546,
      "##xe": 6547,
      "lhamdolilah": 6548,
      "##zin": 6549,
      "xof": 6550,
      "##30": 6551,
      "##ord": 6552,
      "nsiti": 6553,
      "##لق": 6554,
      "ner": 6555,
      "##nu": 6556,
      "##chkila": 6557,
      "lghorba": 6558,
      "alha": 6559,
      "hahahahahaha": 6560,
      "##chad": 6561,
      "##adich": 6562,
      "tamchi": 6563,
      "hdchi": 6564,
      "##sna": 6565,
      "chnou": 6566,
      "wnta": 6567,
      "rabat": 6568,
      "ykhlikom": 6569,
      "اع": 6570,
      "##ayer": 6571,
      "amaz": 6572,
      "dark": 6573,
      "3tak": 6574,
      "l7am": 6575,
      "roh": 6576,
      "##khel": 6577,
      "fihoum": 6578,
      "##lila": 6579,
      "##fkar": 6580,
      "chabab": 6581,
      "wma": 6582,
      "zman": 6583,
      "che3": 6584,
      "##chy": 6585,
      "bru": 6586,
      "ye3": 6587,
      "wahid": 6588,
      "jer": 6589,
      "titi": 6590,
      "##nza": 6591,
      "##yowat": 6592,
      "surt": 6593,
      "mank": 6594,
      "layhf": 6595,
      "walahila": 6596,
      "##الة": 6597,
      "mab9it": 6598,
      "dakhli": 6599,
      "7da": 6600,
      "##3d": 6601,
      "mac": 6602,
      "##gl": 6603,
      "##3arfo": 6604,
      "##mer": 6605,
      "didik": 6606,
      "khet": 6607,
      "kangol": 6608,
      "mx": 6609,
      "doria": 6610,
      "rana": 6611,
      "tst": 6612,
      "cheb": 6613,
      "khire": 6614,
      "binatkom": 6615,
      "lyouma": 6616,
      "##play": 6617,
      "marat": 6618,
      "monde": 6619,
      "bangladesh": 6620,
      "##طبخ": 6621,
      "بلا": 6622,
      "tfak": 6623,
      "##akhod": 6624,
      "##alama": 6625,
      "djaj": 6626,
      "fek": 6627,
      "ye3tik": 6628,
      "moumkin": 6629,
      "##la7": 6630,
      "##wachar": 6631,
      "##wafa9a": 6632,
      "bniya": 6633,
      "sor": 6634,
      "##حت": 6635,
      "##con": 6636,
      "##olk": 6637,
      "produ": 6638,
      "##ناس": 6639,
      "golo": 6640,
      "koni": 6641,
      "##wni": 6642,
      "lhob": 6643,
      "omor": 6644,
      "##dj": 6645,
      "tchofi": 6646,
      "rej": 6647,
      "mdr": 6648,
      "##xy": 6649,
      "sna": 6650,
      "##beh": 6651,
      "kantfrj": 6652,
      "##aniti": 6653,
      "mafhamtch": 6654,
      "she": 6655,
      "oba": 6656,
      "##3jb": 6657,
      "kan7ma9": 6658,
      "##ace": 6659,
      "kntmna": 6660,
      "##🤲🏼": 6661,
      "##last": 6662,
      "##oua": 6663,
      "##bibi": 6664,
      "nador": 6665,
      "##dmi": 6666,
      "##abat": 6667,
      "harb": 6668,
      "usa": 6669,
      "mtb3ak": 6670,
      "police": 6671,
      "3awnoni": 6672,
      "pu": 6673,
      "##ors": 6674,
      "frh": 6675,
      "danya": 6676,
      "aha": 6677,
      "lhbiba": 6678,
      "korona": 6679,
      "dkhl": 6680,
      "prof": 6681,
      "kah": 6682,
      "tomo": 6683,
      "yahfadkom": 6684,
      "##ososan": 6685,
      "كنت": 6686,
      "ywaf9ak": 6687,
      "rot": 6688,
      "toma": 6689,
      "##mil": 6690,
      "sams": 6691,
      "##atal": 6692,
      "##ya9": 6693,
      "taht": 6694,
      "wolah": 6695,
      "##dri": 6696,
      "hdaya": 6697,
      "prank": 6698,
      "7choma": 6699,
      "##3aks": 6700,
      "soukaina": 6701,
      "lom": 6702,
      "n3rf": 6703,
      "sif": 6704,
      "mit": 6705,
      "##ways": 6706,
      "ix": 6707,
      "9taltini": 6708,
      "❤❤❤❤❤": 6709,
      "##zak": 6710,
      "##مر": 6711,
      "lq": 6712,
      "f9anati": 6713,
      "##oshima": 6714,
      "3raft": 6715,
      "maha": 6716,
      "wayih": 6717,
      "al9": 6718,
      "darto": 6719,
      "##use": 6720,
      "##yk": 6721,
      "atay": 6722,
      "w9a3": 6723,
      "9rib": 6724,
      "##l3a": 6725,
      "cre": 6726,
      "kali": 6727,
      "##دير": 6728,
      "##ahi": 6729,
      "##inach": 6730,
      "mab9ach": 6731,
      "##mo3": 6732,
      "wiam": 6733,
      "yhfdkom": 6734,
      "##le3": 6735,
      "kat7": 6736,
      "90": 6737,
      "##بل": 6738,
      "##taja": 6739,
      "##brti": 6740,
      "lwasafat": 6741,
      "spe": 6742,
      "##2i": 6743,
      "akhiran": 6744,
      "##iki": 6745,
      "chay": 6746,
      "keb": 6747,
      "##la9a": 6748,
      "ym": 6749,
      "makrh": 6750,
      "##farjo": 6751,
      "fala": 6752,
      "head": 6753,
      "##tub": 6754,
      "##ama3": 6755,
      "##khin": 6756,
      "kayne": 6757,
      "kalam": 6758,
      "alwatan": 6759,
      "##kaw": 6760,
      "##yna": 6761,
      "7amla": 6762,
      "hj": 6763,
      "dialha": 6764,
      "ked": 6765,
      "##34": 6766,
      "math": 6767,
      "darha": 6768,
      "la9ta": 6769,
      "alfa": 6770,
      "sbitar": 6771,
      "##wja": 6772,
      "##ghat": 6773,
      "bntk": 6774,
      "continue": 6775,
      "ng": 6776,
      "bantak": 6777,
      "mocha": 6778,
      "ya7": 6779,
      "abonaw": 6780,
      "lai": 6781,
      "bhalo": 6782,
      "yzid": 6783,
      "تف": 6784,
      "diriha": 6785,
      "daya": 6786,
      "numero": 6787,
      "neti": 6788,
      "walidih": 6789,
      "mafiha": 6790,
      "##adi3": 6791,
      "f7": 6792,
      "mogham": 6793,
      "##hadri": 6794,
      "traj": 6795,
      "blan": 6796,
      "hamdolilah": 6797,
      "##namaj": 6798,
      "##ist": 6799,
      "rep": 6800,
      "lahawla": 6801,
      "dounia": 6802,
      "##yh": 6803,
      "dokhlo": 6804,
      "donc": 6805,
      "btw": 6806,
      "##منى": 6807,
      "اشترك": 6808,
      "##tm": 6809,
      "ifk": 6810,
      "family": 6811,
      "##ui": 6812,
      "##9as": 6813,
      "##dya": 6814,
      "##ote": 6815,
      "##wa7": 6816,
      "##كر": 6817,
      "##راء": 6818,
      "##atak": 6819,
      "vie": 6820,
      "ychof": 6821,
      "ون": 6822,
      "mkn": 6823,
      "##70": 6824,
      "malha": 6825,
      "kok": 6826,
      "lag": 6827,
      "er": 6828,
      "mimtk": 6829,
      "nao": 6830,
      "##ines": 6831,
      "##ert": 6832,
      "##abni": 6833,
      "##zt": 6834,
      "ربي": 6835,
      "##سب": 6836,
      "##9tl": 6837,
      "yrhm": 6838,
      "rais": 6839,
      "❤❤❤❤": 6840,
      "nx": 6841,
      "wayeh": 6842,
      "##alha": 6843,
      "hite": 6844,
      "dkhalt": 6845,
      "didi": 6846,
      "##sak": 6847,
      "tbd": 6848,
      "##mha": 6849,
      "bnisba": 6850,
      "##faza": 6851,
      "mohamad": 6852,
      "oma3": 6853,
      "##wt": 6854,
      "nsawlak": 6855,
      "siyda": 6856,
      "lmakla": 6857,
      "##bich": 6858,
      "tbarkalh": 6859,
      "3awtani": 6860,
      "3r": 6861,
      "👍🏻": 6862,
      "fni": 6863,
      "hos": 6864,
      "لان": 6865,
      "##abo": 6866,
      "fdak": 6867,
      "bec": 6868,
      "lig": 6869,
      "l9isa": 6870,
      "l7al9a": 6871,
      "الز": 6872,
      "amina": 6873,
      "است": 6874,
      "fok": 6875,
      "kilo": 6876,
      "##rj3": 6877,
      "some": 6878,
      "kata3": 6879,
      "nefs": 6880,
      "matay": 6881,
      "galsa": 6882,
      "##😍❤": 6883,
      "##nam": 6884,
      "##اح": 6885,
      "fi3": 6886,
      "tahyati": 6887,
      "t9ad": 6888,
      "gogle": 6889,
      "comentaires": 6890,
      "nowara": 6891,
      "3tik": 6892,
      "krah": 6893,
      "##uz": 6894,
      "makhas": 6895,
      "mousiba": 6896,
      "rd": 6897,
      "oraha": 6898,
      "##ارة": 6899,
      "##lima": 6900,
      "tal3": 6901,
      "yehf": 6902,
      "##raz9ak": 6903,
      "lamra": 6904,
      "wa9fa": 6905,
      "##video": 6906,
      "ache": 6907,
      "##bek": 6908,
      "hahahahaha": 6909,
      "mdinti": 6910,
      "bano": 6911,
      "hanan": 6912,
      "o9": 6913,
      "twil": 6914,
      "khouna": 6915,
      "فر": 6916,
      "##loha": 6917,
      "##sach": 6918,
      "##net": 6919,
      "##🇮🇱": 6920,
      "l3aj": 6921,
      "##boha": 6922,
      "okant": 6923,
      "samsung": 6924,
      "##m3o": 6925,
      "##9ni": 6926,
      "wlidatek": 6927,
      "##ytkom": 6928,
      "grand": 6929,
      "##ron": 6930,
      "chem": 6931,
      "##moto": 6932,
      "walit": 6933,
      "lvedio": 6934,
      "idiro": 6935,
      "##pl": 6936,
      "##قت": 6937,
      "fima": 6938,
      "3acha": 6939,
      "##erej": 6940,
      "##qi": 6941,
      "always": 6942,
      "nod": 6943,
      "khout": 6944,
      "##dulah": 6945,
      "kank": 6946,
      "sadi": 6947,
      "21": 6948,
      "yfk": 6949,
      "##pay": 6950,
      "moslimin": 6951,
      "ichof": 6952,
      "ختي": 6953,
      "3ndek": 6954,
      "##aima": 6955,
      "lablad": 6956,
      "dyale": 6957,
      "##🇲🇦🇲🇦🇲🇦": 6958,
      "bda7k": 6959,
      "holanda": 6960,
      "##abal": 6961,
      "i5": 6962,
      "og": 6963,
      "هنا": 6964,
      "gad": 6965,
      "##frah": 6966,
      "kafo": 6967,
      "tabark": 6968,
      "zak": 6969,
      "hanane": 6970,
      "najah": 6971,
      "##louli": 6972,
      "##mala": 6973,
      "##awb": 6974,
      "kla": 6975,
      "ba9": 6976,
      "maghribia": 6977,
      "oana": 6978,
      "dialak": 6979,
      "katcha": 6980,
      "3aych": 6981,
      "##koma": 6982,
      "ando": 6983,
      "ymkn": 6984,
      "bohdi": 6985,
      "mamaha": 6986,
      "70": 6987,
      "##ytak": 6988,
      "oth": 6989,
      "sn": 6990,
      "##lu": 6991,
      "batma": 6992,
      "jazair": 6993,
      "ydiro": 6994,
      "7san": 6995,
      "kona": 6996,
      "##bay": 6997,
      "ger": 6998,
      "sign": 6999,
      "3rfti": 7000,
      "parti": 7001,
      "jmi3": 7002,
      "wam": 7003,
      "rzal": 7004,
      "sale": 7005,
      "imchi": 7006,
      "##hdro": 7007,
      "y3awn": 7008,
      "makant": 7009,
      "##boh": 7010,
      "lhmd": 7011,
      "msakn": 7012,
      "ata": 7013,
      "kidayra": 7014,
      "didikas": 7015,
      "aid": 7016,
      "khditi": 7017,
      "##يرة": 7018,
      "yawmi": 7019,
      "##rim": 7020,
      "jouj": 7021,
      "okht": 7022,
      "kir": 7023,
      "##oj": 7024,
      "##sd": 7025,
      "ghali": 7026,
      "##ناة": 7027,
      "##anin": 7028,
      "rahna": 7029,
      "yahafdak": 7030,
      "##yni": 7031,
      "##toh": 7032,
      "blama": 7033,
      "kanb": 7034,
      "s7i": 7035,
      "malo": 7036,
      "iman": 7037,
      "رد": 7038,
      "hyatk": 7039,
      "hwayj": 7040,
      "bl3": 7041,
      "##sada": 7042,
      "tjawbini": 7043,
      "kouya": 7044,
      "😂🤣": 7045,
      "khwat": 7046,
      "song": 7047,
      "##alya": 7048,
      "l3af": 7049,
      "sada": 7050,
      "##izan": 7051,
      "wkat": 7052,
      "flk": 7053,
      "ui": 7054,
      "yfakak": 7055,
      "isra": 7056,
      "mal9it": 7057,
      "anime": 7058,
      "9oli": 7059,
      "lakhar": 7060,
      "##9af": 7061,
      "##dine": 7062,
      "##tila": 7063,
      "hiba": 7064,
      "##idin": 7065,
      "ihfadkom": 7066,
      "yfak": 7067,
      "wir": 7068,
      "##outi": 7069,
      "khlik": 7070,
      "chat": 7071,
      "rabe": 7072,
      "yx": 7073,
      "dec": 7074,
      "yem": 7075,
      "##fraj": 7076,
      "##riban": 7077,
      "lbs": 7078,
      "note": 7079,
      "##يني": 7080,
      "jamais": 7081,
      "##bro": 7082,
      "##ask": 7083,
      "maman": 7084,
      "lbaraka": 7085,
      "hot": 7086,
      "😍❤": 7087,
      "##alik": 7088,
      "jarabtha": 7089,
      "daf": 7090,
      "##par": 7091,
      "##baraka": 7092,
      "tamara": 7093,
      "meknes": 7094,
      "bo7": 7095,
      "khbar": 7096,
      "##itk": 7097,
      "mgh": 7098,
      "inchae": 7099,
      "mil": 7100,
      "videowat": 7101,
      "ma3rftch": 7102,
      "nasi7a": 7103,
      "dirou": 7104,
      "ek": 7105,
      "chriti": 7106,
      "##bali": 7107,
      "charaf": 7108,
      "##dyatkom": 7109,
      "##rij": 7110,
      "kaygolo": 7111,
      "tzid": 7112,
      "##wala": 7113,
      "##bghiw": 7114,
      "mna": 7115,
      "الط": 7116,
      "3ajbatni": 7117,
      "aim": 7118,
      "##وع": 7119,
      "m3k": 7120,
      "##daz": 7121,
      "think": 7122,
      "wz": 7123,
      "ولي": 7124,
      "maykon": 7125,
      "moslim": 7126,
      "##39": 7127,
      "ami": 7128,
      "isti": 7129,
      "sec": 7130,
      "9is": 7131,
      "mo7": 7132,
      "its": 7133,
      "raf": 7134,
      "ze3": 7135,
      "never": 7136,
      "##diw": 7137,
      "dakhal": 7138,
      "loun": 7139,
      "##3w": 7140,
      "##ahmo": 7141,
      "kate": 7142,
      "##noukh": 7143,
      "##adiya": 7144,
      "tork": 7145,
      "##yak": 7146,
      "##ado3": 7147,
      "##tkoum": 7148,
      "ykhlik": 7149,
      "daraja": 7150,
      "rj3": 7151,
      "##l3b": 7152,
      "##jebni": 7153,
      "maja": 7154,
      "##ste": 7155,
      "charkt": 7156,
      "l3ez": 7157,
      "dnya": 7158,
      "kanah": 7159,
      "dad": 7160,
      "##alakh": 7161,
      "chmata": 7162,
      "gonzal": 7163,
      "##ike": 7164,
      "##9a9": 7165,
      "با": 7166,
      "lwahd": 7167,
      "##dida": 7168,
      "matdihach": 7169,
      "bisou": 7170,
      "عليكم": 7171,
      "whatsap": 7172,
      "jw": 7173,
      "##hli": 7174,
      "##ontir": 7175,
      "##jer": 7176,
      "##z9ak": 7177,
      "##wiw": 7178,
      "compte": 7179,
      "##kht": 7180,
      "alaho": 7181,
      "lmachakil": 7182,
      "##z9k": 7183,
      "##ud": 7184,
      "##زل": 7185,
      "roya": 7186,
      "mohtawa": 7187,
      "nchalh": 7188,
      "##تها": 7189,
      "khalikom": 7190,
      "##rine": 7191,
      "##etek": 7192,
      "##🙏🏻🙏🏻": 7193,
      "3ro": 7194,
      "5ir": 7195,
      "darouri": 7196,
      "dlm": 7197,
      "fdik": 7198,
      "##zkom": 7199,
      "2021": 7200,
      "sahl": 7201,
      "9ray": 7202,
      "##afdak": 7203,
      "##daha": 7204,
      "chiwat": 7205,
      "okhra": 7206,
      "byad": 7207,
      "ki3": 7208,
      "##ations": 7209,
      "##esi": 7210,
      "match": 7211,
      "wasafatk": 7212,
      "lich": 7213,
      "masha": 7214,
      "mora": 7215,
      "ghzalin": 7216,
      "ihsas": 7217,
      "muslim": 7218,
      "dirih": 7219,
      "no3": 7220,
      "##w9a3": 7221,
      "rban": 7222,
      "##ych": 7223,
      "3tih": 7224,
      "hrb": 7225,
      "بل": 7226,
      "m3n": 7227,
      "anak": 7228,
      "##jiha": 7229,
      "art": 7230,
      "3ndhom": 7231,
      "80": 7232,
      "f3m": 7233,
      "سلام": 7234,
      "##5ir": 7235,
      "fol": 7236,
      "a7sen": 7237,
      "namra": 7238,
      "jour": 7239,
      "##ayar": 7240,
      "##gue": 7241,
      "amazi": 7242,
      "tiy": 7243,
      "تش": 7244,
      "##ghadi": 7245,
      "faran": 7246,
      "paypal": 7247,
      "tran": 7248,
      "odima": 7249,
      "##ouda": 7250,
      "##arima": 7251,
      "inspir": 7252,
      "xhal": 7253,
      "##efdek": 7254,
      "fra7t": 7255,
      "katkon": 7256,
      "##مع": 7257,
      "makla": 7258,
      "##sift": 7259,
      "kun": 7260,
      "##jaba": 7261,
      "عالم": 7262,
      "oki": 7263,
      "ifak": 7264,
      "##kome": 7265,
      "mate": 7266,
      "farhana": 7267,
      "oficiel": 7268,
      "maydar": 7269,
      "##اتي": 7270,
      "lhijab": 7271,
      "hyati": 7272,
      "##ouan": 7273,
      "dyli": 7274,
      "sport": 7275,
      "oulah": 7276,
      "##wich": 7277,
      "alina": 7278,
      "وش": 7279,
      "##hti": 7280,
      "tarik": 7281,
      "##ya9a": 7282,
      "katb9a": 7283,
      "##bona": 7284,
      "kenitra": 7285,
      "mota": 7286,
      "wnt": 7287,
      "chance": 7288,
      "##tam": 7289,
      "##rita": 7290,
      "##gin": 7291,
      "yous": 7292,
      "##🇮🇳": 7293,
      "ma3m": 7294,
      "cal": 7295,
      "seh": 7296,
      "mart": 7297,
      "dual": 7298,
      "bna": 7299,
      "there": 7300,
      "flb": 7301,
      "dayer": 7302,
      "labsa": 7303,
      "9tltini": 7304,
      "zb": 7305,
      "##ekt": 7306,
      "lhrba": 7307,
      "fa3": 7308,
      "track": 7309,
      "ara": 7310,
      "because": 7311,
      "tkhali": 7312,
      "فيها": 7313,
      "nchri": 7314,
      "khdi": 7315,
      "##zat": 7316,
      "khadam": 7317,
      "barik": 7318,
      "salmi": 7319,
      "sabri": 7320,
      "##oute": 7321,
      "matk": 7322,
      "##ish": 7323,
      "##دين": 7324,
      "لع": 7325,
      "wraha": 7326,
      "##kho": 7327,
      "selam": 7328,
      "7ram": 7329,
      "aga": 7330,
      "##lob": 7331,
      "mat3": 7332,
      "9lil": 7333,
      "brasi": 7334,
      "yasar": 7335,
      "dhktini": 7336,
      "##qui": 7337,
      "ili": 7338,
      "##خص": 7339,
      "chakh": 7340,
      "kaygol": 7341,
      "lwlad": 7342,
      "style": 7343,
      "##cht": 7344,
      "tzwj": 7345,
      "okha": 7346,
      "khi": 7347,
      "telef": 7348,
      "9ra": 7349,
      "ba3di": 7350,
      "peace": 7351,
      "b7alk": 7352,
      "##bach": 7353,
      "tbi": 7354,
      "##9ou": 7355,
      "mana": 7356,
      "wladi": 7357,
      "##farej": 7358,
      "kantfaraj": 7359,
      "t3ar": 7360,
      "lkbir": 7361,
      "kenti": 7362,
      "dro": 7363,
      "7ay": 7364,
      "##فت": 7365,
      "katn": 7366,
      "alj": 7367,
      "lakhor": 7368,
      "##sinin": 7369,
      "بع": 7370,
      "##inin": 7371,
      "l3b": 7372,
      "mhtaja": 7373,
      "##jazair": 7374,
      "##2ila": 7375,
      "maki": 7376,
      "##7aja": 7377,
      "##erk": 7378,
      "ry": 7379,
      "ta3i": 7380,
      "##hoto": 7381,
      "hder": 7382,
      "##80": 7383,
      "tba3": 7384,
      "than": 7385,
      "be3da": 7386,
      "fj": 7387,
      "vedeo": 7388,
      "lkhout": 7389,
      "adil": 7390,
      "momkine": 7391,
      "t3al": 7392,
      "exp": 7393,
      "ci": 7394,
      "ntwas": 7395,
      "##isal": 7396,
      "bhalha": 7397,
      "char9i": 7398,
      "##cos": 7399,
      "##jich": 7400,
      "7ata": 7401,
      "tbiba": 7402,
      "mowafa9a": 7403,
      "lhayat": 7404,
      "##👏🏻": 7405,
      "##box": 7406,
      "3ml": 7407,
      "bde": 7408,
      "chouha": 7409,
      "b3ida": 7410,
      "hti": 7411,
      "tre": 7412,
      "امين": 7413,
      "ol3": 7414,
      "katgoli": 7415,
      "moj": 7416,
      "كا": 7417,
      "inti": 7418,
      "tol": 7419,
      "##ghit": 7420,
      "hdra": 7421,
      "bdik": 7422,
      "ide": 7423,
      "ghizlane": 7424,
      "##grib": 7425,
      "##dt": 7426,
      "chokrane": 7427,
      "##taht": 7428,
      "sora": 7429,
      "lhamdo": 7430,
      "yfok": 7431,
      "ماشي": 7432,
      "lman": 7433,
      "slamt": 7434,
      "واش": 7435,
      "t3awn": 7436,
      "##🇮🇹": 7437,
      "##di3": 7438,
      "##ebt": 7439,
      "bor": 7440,
      "ولكن": 7441,
      "elk": 7442,
      "show": 7443,
      "##irt": 7444,
      "وه": 7445,
      "##imi": 7446,
      "فيه": 7447,
      "tbarak": 7448,
      "sti": 7449,
      "##aine": 7450,
      "##yhi": 7451,
      "lyoutube": 7452,
      "ati": 7453,
      "yom": 7454,
      "##ru": 7455,
      "nchaelah": 7456,
      "ep": 7457,
      "##atiha": 7458,
      "##rfo": 7459,
      "##3alha": 7460,
      "karima": 7461,
      "bghito": 7462,
      "da3moni": 7463,
      "ohowa": 7464,
      "friend": 7465,
      "##bto": 7466,
      "##dikom": 7467,
      "akho": 7468,
      "ljana": 7469,
      "ta7iyati": 7470,
      "7sen": 7471,
      "htal": 7472,
      "##ble": 7473,
      "##ahe": 7474,
      "##ast": 7475,
      "##tawal": 7476,
      "twl": 7477,
      "nay": 7478,
      "para": 7479,
      "##وز": 7480,
      "khtk": 7481,
      "##dihom": 7482,
      "اسم": 7483,
      "##oudi": 7484,
      "##ents": 7485,
      "barcel": 7486,
      "##rani": 7487,
      "##laf": 7488,
      "bliz": 7489,
      "jmal": 7490,
      "##wana": 7491,
      "drab": 7492,
      "##aft": 7493,
      "khouk": 7494,
      "alkh": 7495,
      "here": 7496,
      "yrahmo": 7497,
      "sei": 7498,
      "l3ada": 7499,
      "تق": 7500,
      "##sali": 7501,
      "wlaw": 7502,
      "##hko": 7503,
      "welcome": 7504,
      "kel": 7505,
      "##3ba": 7506,
      "##غي": 7507,
      "##جل": 7508,
      "mobile": 7509,
      "##imat": 7510,
      "سي": 7511,
      "khawi": 7512,
      "dkchi": 7513,
      "lbachar": 7514,
      "##lwa": 7515,
      "kolkom": 7516,
      "##tarm": 7517,
      "o5": 7518,
      "##wz": 7519,
      "monafi9": 7520,
      "xno": 7521,
      "##در": 7522,
      "machalh": 7523,
      "bkol": 7524,
      "##olha": 7525,
      "ona": 7526,
      "roj": 7527,
      "mem": 7528,
      "tadir": 7529,
      "ale": 7530,
      "##etik": 7531,
      "donya": 7532,
      "hajar": 7533,
      "walaw": 7534,
      "##3icho": 7535,
      "wa3re": 7536,
      "##cer": 7537,
      "bac": 7538,
      "ramdani": 7539,
      "مك": 7540,
      "lien": 7541,
      "inf": 7542,
      "layr": 7543,
      "na3raf": 7544,
      "fl9anat": 7545,
      "frere": 7546,
      "alman": 7547,
      "##9ih": 7548,
      "lfilm": 7549,
      "zr": 7550,
      "تي": 7551,
      "akhra": 7552,
      "kdoub": 7553,
      "una": 7554,
      "dare": 7555,
      "##فة": 7556,
      "baki": 7557,
      "##جة": 7558,
      "waf": 7559,
      "ymchi": 7560,
      "lmous": 7561,
      "##adiha": 7562,
      "da3mini": 7563,
      "snan": 7564,
      "حس": 7565,
      "##rna": 7566,
      "bghinak": 7567,
      "meni": 7568,
      "##wiyat": 7569,
      "ma9lab": 7570,
      "##👍🏼👍🏼": 7571,
      "m3am": 7572,
      "##bli": 7573,
      "l9ana": 7574,
      "##ilm": 7575,
      "bok": 7576,
      "يت": 7577,
      "disk": 7578,
      "lay3tik": 7579,
      "odaba": 7580,
      "3ayn": 7581,
      "lbarh": 7582,
      "##ذه": 7583,
      "balkhir": 7584,
      "قناتي": 7585,
      "9dim": 7586,
      "الفي": 7587,
      "##wej": 7588,
      "nsay": 7589,
      "bog": 7590,
      "##reh": 7591,
      "asa7": 7592,
      "wsafi": 7593,
      "7a": 7594,
      "dris": 7595,
      "orak": 7596,
      "تخ": 7597,
      "##akhlo": 7598,
      "achmn": 7599,
      "vedi": 7600,
      "slama": 7601,
      "jbti": 7602,
      "##xt": 7603,
      "labs": 7604,
      "makhla9": 7605,
      "i3awn": 7606,
      "yos": 7607,
      "khososan": 7608,
      "zaman": 7609,
      "##aji": 7610,
      "##barklah": 7611,
      "##etak": 7612,
      "fax": 7613,
      "dazt": 7614,
      "##naz": 7615,
      "cherie": 7616,
      "##abiya": 7617,
      "##🇪🇦": 7618,
      "bitawfi9": 7619,
      "##ali9": 7620,
      "prix": 7621,
      "##rkom": 7622,
      "when": 7623,
      "dim": 7624,
      "كيف": 7625,
      "3em": 7626,
      "rkh": 7627,
      "likh": 7628,
      "##frjo": 7629,
      "##19": 7630,
      "hach": 7631,
      "mati": 7632,
      "##hmak": 7633,
      "jin": 7634,
      "##وري": 7635,
      "##atek": 7636,
      "ma3am": 7637,
      "itali": 7638,
      "siyad": 7639,
      "##leh": 7640,
      "bkh": 7641,
      "kada": 7642,
      "xkon": 7643,
      "##mira": 7644,
      "##be7": 7645,
      "story": 7646,
      "##itina": 7647,
      "phone": 7648,
      "##ute": 7649,
      "##ori": 7650,
      "gonzalez": 7651,
      "##yl": 7652,
      "##🇨🇵": 7653,
      "matb9a": 7654,
      "##kach": 7655,
      "لكن": 7656,
      "lfan": 7657,
      "##latni": 7658,
      "sayda": 7659,
      "yha": 7660,
      "abdo": 7661,
      "##dom": 7662,
      "##l3ab": 7663,
      "surtout": 7664,
      "espan": 7665,
      "charak": 7666,
      "##ozina": 7667,
      "walat": 7668,
      "sayad": 7669,
      "ome": 7670,
      "tanta": 7671,
      "hamdoulah": 7672,
      "izid": 7673,
      "##9ya": 7674,
      "msik": 7675,
      "leila": 7676,
      "akti": 7677,
      "lwald": 7678,
      "barcelona": 7679,
      "علا": 7680,
      "##رق": 7681,
      "ta3li": 7682,
      "arti": 7683,
      "boz": 7684,
      "##9ini": 7685,
      "3afk": 7686,
      "da7": 7687,
      "bsbab": 7688,
      "wa7da": 7689,
      "bjouj": 7690,
      "bila": 7691,
      "skin": 7692,
      "alkhot": 7693,
      "lmhm": 7694,
      "twali": 7695,
      "ved": 7696,
      "##taz": 7697,
      "3endek": 7698,
      "##👍🏻👍🏻👍🏻👍🏻": 7699,
      "##onal": 7700,
      "bkhir": 7701,
      "ze": 7702,
      "te3": 7703,
      "tanti": 7704,
      "francais": 7705,
      "3lek": 7706,
      "##jour": 7707,
      "##ريم": 7708,
      "bgit": 7709,
      "##fic": 7710,
      "wanari": 7711,
      "hadshi": 7712,
      "alach": 7713,
      "klamk": 7714,
      "##jrim": 7715,
      "kantsna": 7716,
      "asln": 7717,
      "##yine": 7718,
      "##7at": 7719,
      "##away": 7720,
      "maky": 7721,
      "lwali": 7722,
      "matsaw": 7723,
      "gaming": 7724,
      "##olis": 7725,
      "الجزاير": 7726,
      "##kch": 7727,
      "naw3": 7728,
      "##walida": 7729,
      "badi": 7730,
      "ygol": 7731,
      "ya3ti": 7732,
      "alhbiba": 7733,
      "bdoriya": 7734,
      "tebarek": 7735,
      "##ario": 7736,
      "reda": 7737,
      "3amar": 7738,
      "irahmo": 7739,
      "jaha": 7740,
      "manhom": 7741,
      "diz": 7742,
      "wraj": 7743,
      "##sakh": 7744,
      "##9ba": 7745,
      "##9kom": 7746,
      "##elh": 7747,
      "##roka": 7748,
      "hahahah": 7749,
      "again": 7750,
      "alikoum": 7751,
      "##fl": 7752,
      "t3awno": 7753,
      "##3ou": 7754,
      "ta9a": 7755,
      "##ayri": 7756,
      "kht": 7757,
      "23": 7758,
      "cara": 7759,
      "##jet": 7760,
      "dialna": 7761,
      "3ak": 7762,
      "touj": 7763,
      "##bn": 7764,
      "mzian": 7765,
      "odar": 7766,
      "##9itich": 7767,
      "e3": 7768,
      "ifok": 7769,
      "matmniti": 7770,
      "lmout": 7771,
      "maloli": 7772,
      "zewina": 7773,
      "aft": 7774,
      "parta": 7775,
      "3d": 7776,
      "##ua": 7777,
      "kifax": 7778,
      "bsi": 7779,
      "بعد": 7780,
      "bsaraha": 7781,
      "tchouf": 7782,
      "icha": 7783,
      "ahsane": 7784,
      "##ret": 7785,
      "l3ziz": 7786,
      "3elikom": 7787,
      "elikom": 7788,
      "gay": 7789,
      "##ary": 7790,
      "kidir": 7791,
      "twahachnak": 7792,
      "rajol": 7793,
      "wanti": 7794,
      "يو": 7795,
      "##9bal": 7796,
      "##58": 7797,
      "mache": 7798,
      "mebrouk": 7799,
      "mkt": 7800,
      "wakil": 7801,
      "fois": 7802,
      "whaylak": 7803,
      "gros": 7804,
      "golt": 7805,
      "dhar": 7806,
      "##uh": 7807,
      "9olti": 7808,
      "wlo": 7809,
      "##cia": 7810,
      "##akt": 7811,
      "##a3ada": 7812,
      "achraf": 7813,
      "banat": 7814,
      "das": 7815,
      "yef": 7816,
      "##ible": 7817,
      "jid": 7818,
      "##ftch": 7819,
      "kathdar": 7820,
      "mrato": 7821,
      "hous": 7822,
      "blas": 7823,
      "karamila": 7824,
      "##ayan": 7825,
      "doz": 7826,
      "hbib": 7827,
      "##yaf": 7828,
      "ljaw": 7829,
      "##zwj": 7830,
      "فيديو": 7831,
      "yhfdak": 7832,
      "7i": 7833,
      "canada": 7834,
      "l9a": 7835,
      "zhar": 7836,
      "ba3diyatkom": 7837,
      "mzawja": 7838,
      "lch": 7839,
      "ohi": 7840,
      "##ench": 7841,
      "5ali": 7842,
      "bdak": 7843,
      "##ytha": 7844,
      "dep": 7845,
      "jarabt": 7846,
      "mafhamt": 7847,
      "##dah": 7848,
      "##مال": 7849,
      "##edek": 7850,
      "sa3ida": 7851,
      "##fdkom": 7852,
      "kaykon": 7853,
      "l3sa": 7854,
      "l3wach": 7855,
      "lwa7": 7856,
      "9riba": 7857,
      "dn": 7858,
      "lfr": 7859,
      "##3rfo": 7860,
      "achman": 7861,
      "hahahahahahahaha": 7862,
      "domage": 7863,
      "rahma": 7864,
      "d7k": 7865,
      "##بتي": 7866,
      "zer": 7867,
      "khdma": 7868,
      "makha": 7869,
      "tilifon": 7870,
      "iha": 7871,
      "😂❤": 7872,
      "tbarkilah": 7873,
      "salamo": 7874,
      "##fikra": 7875,
      "kadiro": 7876,
      "kamline": 7877,
      "ey": 7878,
      "##3alam": 7879,
      "wid": 7880,
      "##cha3": 7881,
      "##yane": 7882,
      "ifakak": 7883,
      "ya5": 7884,
      "mosab": 7885,
      "9ima": 7886,
      "##na3": 7887,
      "ait": 7888,
      "hfad": 7889,
      "seri": 7890,
      "ردي": 7891,
      "lbent": 7892,
      "3awno": 7893,
      "7sn": 7894,
      "hla": 7895,
      "##deb": 7896,
      "tabla": 7897,
      "##rba7": 7898,
      "##fla": 7899,
      "ikrame": 7900,
      "##doha": 7901,
      "y3awnk": 7902,
      "تس": 7903,
      "##lhom": 7904,
      "n9dar": 7905,
      "مي": 7906,
      "tafaha": 7907,
      "mour": 7908,
      "mafih": 7909,
      "naima": 7910,
      "##👍❤": 7911,
      "##ذي": 7912,
      "##rebi": 7913,
      "hawa": 7914,
      "melouli": 7915,
      "hahowa": 7916,
      "photo": 7917,
      "##mam": 7918,
      "darna": 7919,
      "l9dam": 7920,
      "khadma": 7921,
      "##can": 7922,
      "yb": 7923,
      "amajda": 7924,
      "warah": 7925,
      "hx": 7926,
      "khaskom": 7927,
      "##lya": 7928,
      "ohna": 7929,
      "bous": 7930,
      "##دخل": 7931,
      "bshtk": 7932,
      "##sou": 7933,
      "##ikat": 7934,
      "ktab": 7935,
      "##brat": 7936,
      "dyalik": 7937,
      "home": 7938,
      "مغربية": 7939,
      "##wsal": 7940,
      "##esa": 7941,
      "##ahko": 7942,
      "##عمل": 7943,
      "##etha": 7944,
      "coun": 7945,
      "fit": 7946,
      "مج": 7947,
      "##zou": 7948,
      "wait": 7949,
      "##khalik": 7950,
      "thing": 7951,
      "hiro": 7952,
      "ros": 7953,
      "##32": 7954,
      "hadk": 7955,
      "ikhliha": 7956,
      "jal": 7957,
      "rasna": 7958,
      "lmostawa": 7959,
      "i3awnak": 7960,
      "##🇪🇸": 7961,
      "##ouse": 7962,
      "lima": 7963,
      "l3ib": 7964,
      "sabr": 7965,
      "##3ek": 7966,
      "prote": 7967,
      "ze3ma": 7968,
      "s7": 7969,
      "them": 7970,
      "9wiya": 7971,
      "##gat": 7972,
      "khfi": 7973,
      "ahk": 7974,
      "##ostawa": 7975,
      "probl": 7976,
      "ris": 7977,
      "tx": 7978,
      "alaf": 7979,
      "1k": 7980,
      "ghdi": 7981,
      "##hadra": 7982,
      "saida": 7983,
      "sa3ada": 7984,
      "radya": 7985,
      "mimi": 7986,
      "alok": 7987,
      "jatk": 7988,
      "aicha": 7989,
      "##jha": 7990,
      "ouma": 7991,
      "الرد": 7992,
      "a5ay": 7993,
      "lakhra": 7994,
      "n9i": 7995,
      "madiha": 7996,
      "l3ay": 7997,
      "o9sim": 7998,
      "kalb": 7999,
      "inspiration": 8000,
      "sed": 8001,
      "zbal": 8002,
      "khair": 8003,
      "hob": 8004,
      "sakn": 8005,
      "lmk": 8006,
      "ihdik": 8007,
      "9nat": 8008,
      "##3an": 8009,
      "wer": 8010,
      "##9dr": 8011,
      "katjini": 8012,
      "##ound": 8013,
      "sawab": 8014,
      "trab": 8015,
      "sokar": 8016,
      "3a2il": 8017,
      "fy": 8018,
      "##adha": 8019,
      "##oliya": 8020,
      "yahya": 8021,
      "sbhan": 8022,
      "##ark": 8023,
      "bom": 8024,
      "وع": 8025,
      "dirna": 8026,
      "mini": 8027,
      "kanab": 8028,
      "amazing": 8029,
      "##kak": 8030,
      "drayfa": 8031,
      "##90": 8032,
      "##انيا": 8033,
      "yhafdk": 8034,
      "##3jab": 8035,
      "##farhak": 8036,
      "sub": 8037,
      "belgi": 8038,
      "l3aila": 8039,
      "##rm": 8040,
      "##doh": 8041,
      "l9aw": 8042,
      "rmdan": 8043,
      "wmat": 8044,
      "##bot": 8045,
      "##jama": 8046,
      "katjib": 8047,
      "bsahatkom": 8048,
      "under": 8049,
      "tari9": 8050,
      "zif": 8051,
      "tendance": 8052,
      "3on": 8053,
      "tlb": 8054,
      "molat": 8055,
      "##edha": 8056,
      "oro": 8057,
      "##oco": 8058,
      "##lala": 8059,
      "mof": 8060,
      "page": 8061,
      "بس": 8062,
      "##طة": 8063,
      "flmghrib": 8064,
      "hem": 8065,
      "غادي": 8066,
      "##ath": 8067,
      "دير": 8068,
      "rja3ti": 8069,
      "##son": 8070,
      "##chab": 8071,
      "ta3k": 8072,
      "##صي": 8073,
      "##elha": 8074,
      "wish": 8075,
      "hacha": 8076,
      "##amana": 8077,
      "tsali": 8078,
      "fadwa": 8079,
      "1v": 8080,
      "3mi": 8081,
      "##ves": 8082,
      "t3li9": 8083,
      "a3lam": 8084,
      "nrbh": 8085,
      "##ra3": 8086,
      "hamda": 8087,
      "hasit": 8088,
      "marocaine": 8089,
      "##ndz": 8090,
      "##jk": 8091,
      "##ميع": 8092,
      "oghniya": 8093,
      "orah": 8094,
      "kib": 8095,
      "jih": 8096,
      "lays": 8097,
      "cm": 8098,
      "tchofo": 8099,
      "##sp": 8100,
      "dont": 8101,
      "##wicha": 8102,
      "na9s": 8103,
      "##khak": 8104,
      "ntfrj": 8105,
      "##wlidat": 8106,
      "##roch": 8107,
      "##bola": 8108,
      "yshal": 8109,
      "isahel": 8110,
      "l9as": 8111,
      "##ytek": 8112,
      "##ضل": 8113,
      "khlih": 8114,
      "face": 8115,
      "kora": 8116,
      "fo9ach": 8117,
      "عليه": 8118,
      "##nadm": 8119,
      "fc": 8120,
      "ma3jb": 8121,
      "bsid9": 8122,
      "matkhafich": 8123,
      "27": 8124,
      "afkar": 8125,
      "7ch": 8126,
      "lbni": 8127,
      "##ost": 8128,
      "katab": 8129,
      "marad": 8130,
      "kantmena": 8131,
      "hrab": 8132,
      "ohiya": 8133,
      "wra": 8134,
      "mea": 8135,
      "##ction": 8136,
      "dirlina": 8137,
      "number": 8138,
      "hati": 8139,
      "##خر": 8140,
      "##zha": 8141,
      "cheh": 8142,
      "mic": 8143,
      "hafdak": 8144,
      "watan": 8145,
      "w3la": 8146,
      "l3ro": 8147,
      "asaha": 8148,
      "##ghal": 8149,
      "##هل": 8150,
      "kole": 8151,
      "bohdo": 8152,
      "natija": 8153,
      "la3b": 8154,
      "rai3a": 8155,
      "jou": 8156,
      "nasa": 8157,
      "##moda": 8158,
      "dawi": 8159,
      "khatira": 8160,
      "sho": 8161,
      "##dod": 8162,
      "ma3mr": 8163,
      "jamila": 8164,
      "اشتراك": 8165,
      "##oufi": 8166,
      "dkhlt": 8167,
      "signal": 8168,
      "peti": 8169,
      "yse": 8170,
      "##rya": 8171,
      "##orini": 8172,
      "3yit": 8173,
      "tdir": 8174,
      "##رض": 8175,
      "dakxi": 8176,
      "sarha": 8177,
      "##♥♥♥": 8178,
      "jnon": 8179,
      "##arba": 8180,
      "madirich": 8181,
      "##uni": 8182,
      "khsk": 8183,
      "##ream": 8184,
      "andek": 8185,
      "onas": 8186,
      "um": 8187,
      "##حك": 8188,
      "ra7": 8189,
      "chaba": 8190,
      "bs7": 8191,
      "b7ali": 8192,
      "##cs": 8193,
      "farha": 8194,
      "لاي": 8195,
      "##tafdo": 8196,
      "biti": 8197,
      "tahi": 8198,
      "خويا": 8199,
      "rbah": 8200,
      "mans": 8201,
      "yhdik": 8202,
      "ldak": 8203,
      "mazala": 8204,
      "t9dar": 8205,
      "kay3jbni": 8206,
      "whaylk": 8207,
      "produit": 8208,
      "7ala": 8209,
      "anada": 8210,
      "##alia": 8211,
      "3mar": 8212,
      "wed": 8213,
      "##76": 8214,
      "##slam": 8215,
      "roi": 8216,
      "ifrhk": 8217,
      "aham": 8218,
      "matkh": 8219,
      "tab9a": 8220,
      "3lihoum": 8221,
      "9alt": 8222,
      "hahah": 8223,
      "tabi3iya": 8224,
      "hz": 8225,
      "kbida": 8226,
      "##chah": 8227,
      "ghda": 8228,
      "vue": 8229,
      "yahdik": 8230,
      "##ba3ad": 8231,
      "malin": 8232,
      "t2abona": 8233,
      "##ahir": 8234,
      "lmad": 8235,
      "blk": 8236,
      "##arn": 8237,
      "3lache": 8238,
      "##or2an": 8239,
      "##rane": 8240,
      "madrid": 8241,
      "riha": 8242,
      "mazid": 8243,
      "fabor": 8244,
      "bf": 8245,
      "web": 8246,
      "🙏🏻": 8247,
      "##بق": 8248,
      "اما": 8249,
      "##شاء": 8250,
      "brat": 8251,
      "soub": 8252,
      "zero": 8253,
      "t9ol": 8254,
      "3er": 8255,
      "##oufo": 8256,
      "balk": 8257,
      "rod": 8258,
      "sahb": 8259,
      "mghrib": 8260,
      "ysahel": 8261,
      "39al": 8262,
      "##abrak": 8263,
      "يس": 8264,
      "##omat": 8265,
      "mery": 8266,
      "mtal": 8267,
      "nora": 8268,
      "##رام": 8269,
      "iya": 8270,
      "##9ab": 8271,
      "yakhd": 8272,
      "##56": 8273,
      "tb9ay": 8274,
      "khayfa": 8275,
      "jawb": 8276,
      "darb": 8277,
      "##cipe": 8278,
      "##oujoula": 8279,
      "dfar": 8280,
      "finaly": 8281,
      "tfk": 8282,
      "guys": 8283,
      "twaldi": 8284,
      "wlm": 8285,
      "بنت": 8286,
      "##rtini": 8287,
      "##7ana": 8288,
      "l3adab": 8289,
      "fle": 8290,
      "grou": 8291,
      "houa": 8292,
      "sidna": 8293,
      "😘😍": 8294,
      "niha": 8295,
      "##wik": 8296,
      "##فظ": 8297,
      "##ry": 8298,
      "khoia": 8299,
      "mahdi": 8300,
      "yakma": 8301,
      "##ones": 8302,
      "andha": 8303,
      "kt3": 8304,
      "##eles": 8305,
      "##bara": 8306,
      "bdat": 8307,
      "boy": 8308,
      "zayd": 8309,
      "اص": 8310,
      "waz": 8311,
      "rashom": 8312,
      "##yatak": 8313,
      "nakhnoukh": 8314,
      "##lch": 8315,
      "##🤲🏼🤲🏼": 8316,
      "lklab": 8317,
      "siyed": 8318,
      "cha3rak": 8319,
      "asa7bi": 8320,
      "lfikra": 8321,
      "sa9": 8322,
      "dawr": 8323,
      "lihoum": 8324,
      "baghin": 8325,
      "##3lah": 8326,
      "##7ti": 8327,
      "chamal": 8328,
      "chafih": 8329,
      "let": 8330,
      "يم": 8331,
      "##bre": 8332,
      "lbn": 8333,
      "diyali": 8334,
      "youm": 8335,
      "ch3ay": 8336,
      "chfto": 8337,
      "bsa": 8338,
      "bouchra": 8339,
      "diyalk": 8340,
      "##sha": 8341,
      "kana": 8342,
      "##zidi": 8343,
      "malika": 8344,
      "hasi": 8345,
      "lbo": 8346,
      "##jou": 8347,
      "lahram": 8348,
      "##chiw": 8349,
      "tbarka": 8350,
      "##ilage": 8351,
      "4adi": 8352,
      "bm": 8353,
      "##amara": 8354,
      "##rag": 8355,
      "##ebal": 8356,
      "##رين": 8357,
      "##ورة": 8358,
      "##skh": 8359,
      "##hb": 8360,
      "##بح": 8361,
      "##tiv": 8362,
      "blo": 8363,
      "##wlad": 8364,
      "matf": 8365,
      "ykono": 8366,
      "##waya": 8367,
      "bzafe": 8368,
      "##9a3": 8369,
      "##pop": 8370,
      "ma3rf": 8371,
      "ent": 8372,
      "##gb": 8373,
      "fchk": 8374,
      "ليا": 8375,
      "3ta": 8376,
      "##rof": 8377,
      "##ture": 8378,
      "arab": 8379,
      "وج": 8380,
      "##mina": 8381,
      "##youn": 8382,
      "mamah": 8383,
      "dalil": 8384,
      "##lo7": 8385,
      "kantab": 8386,
      "##taram": 8387,
      "##😂🤣😂🤣": 8388,
      "abi": 8389,
      "yis": 8390,
      "##tib": 8391,
      "##dach": 8392,
      "kadaba": 8393,
      "hn": 8394,
      "wrak": 8395,
      "##wata": 8396,
      "lblan": 8397,
      "##ghribiya": 8398,
      "haram": 8399,
      "sada9a": 8400,
      "##عو": 8401,
      "l3on": 8402,
      "##adat": 8403,
      "3awni": 8404,
      "njib": 8405,
      "julia": 8406,
      "##😘😍": 8407,
      "cok": 8408,
      "##😘❤": 8409,
      "hope": 8410,
      "abdelah": 8411,
      "eh": 8412,
      "o7": 8413,
      "ligal": 8414,
      "##9d": 8415,
      "lagh": 8416,
      "knhma9": 8417,
      "lfa9": 8418,
      "##amo": 8419,
      "l9ta": 8420,
      "chy": 8421,
      "makaynach": 8422,
      "lghzala": 8423,
      "ameri": 8424,
      "##wlak": 8425,
      "##bol": 8426,
      "##ند": 8427,
      "3wan": 8428,
      "amir": 8429,
      "##ala9a": 8430,
      "mchaw": 8431,
      "sto": 8432,
      "##yada": 8433,
      "##thing": 8434,
      "tous": 8435,
      "##ij": 8436,
      "##fas": 8437,
      "l3yalat": 8438,
      "3zize": 8439,
      "القناة": 8440,
      "kri": 8441,
      "ndi": 8442,
      "##khlik": 8443,
      "wehda": 8444,
      "twam": 8445,
      "twila": 8446,
      "da3mouni": 8447,
      "lbit": 8448,
      "##bz": 8449,
      "kayb9a": 8450,
      "wahde": 8451,
      "madiri": 8452,
      "##tis": 8453,
      "maxa": 8454,
      "i3awnk": 8455,
      "tlab": 8456,
      "##oso": 8457,
      "ba3ad": 8458,
      "folow": 8459,
      "jeb": 8460,
      "##ahira": 8461,
      "olay": 8462,
      "xokran": 8463,
      "##j3o": 8464,
      "ntaya": 8465,
      "ge": 8466,
      "##rona": 8467,
      "sa7bi": 8468,
      "##هار": 8469,
      "almania": 8470,
      "ديالك": 8471,
      "prin": 8472,
      "##cte": 8473,
      "khtek": 8474,
      "tomobil": 8475,
      "got": 8476,
      "yu": 8477,
      "##abon": 8478,
      "lm3": 8479,
      "hadachi": 8480,
      "nmr": 8481,
      "vido": 8482,
      "##tiful": 8483,
      "s7i7": 8484,
      "feh": 8485,
      "##قل": 8486,
      "rahim": 8487,
      "##babik": 8488,
      "heroshima": 8489,
      "zidi": 8490,
      "chrit": 8491,
      "chalah": 8492,
      "habiba": 8493,
      "fz": 8494,
      "mir": 8495,
      "sl": 8496,
      "##ta9a": 8497,
      "ykhalih": 8498,
      "lwalidine": 8499,
      "ijazikom": 8500,
      "iz": 8501,
      "المت": 8502,
      "##form": 8503,
      "idi": 8504,
      "##drab": 8505,
      "jdad": 8506,
      "خاص": 8507,
      "khiti": 8508,
      "ma5": 8509,
      "sofyan": 8510,
      "##roh": 8511,
      "frasak": 8512,
      "##fek": 8513,
      "lhlib": 8514,
      "lmard": 8515,
      "##wjo": 8516,
      "##kay": 8517,
      "mochtar": 8518,
      "wlkn": 8519,
      "gou": 8520,
      "alala": 8521,
      "wol": 8522,
      "3ndkom": 8523,
      "بحال": 8524,
      "kansta": 8525,
      "igol": 8526,
      "mangol": 8527,
      "3tina": 8528,
      "##etes": 8529,
      "ghezala": 8530,
      "hai": 8531,
      "##fe9": 8532,
      "chfti": 8533,
      "yechafik": 8534,
      "##rir": 8535,
      "tanya": 8536,
      "##ليق": 8537,
      "المس": 8538,
      "maymknch": 8539,
      "##bira": 8540,
      "zan9a": 8541,
      "3adna": 8542,
      "da3wa": 8543,
      "tala3": 8544,
      "##gre": 8545,
      "##ahak": 8546,
      "##aditi": 8547,
      "noir": 8548,
      "youtubers": 8549,
      "thdar": 8550,
      "galk": 8551,
      "ra9m": 8552,
      "fami": 8553,
      "##chiya": 8554,
      "yhfd": 8555,
      "beautiful": 8556,
      "tjawbni": 8557,
      "maka": 8558,
      "##gla": 8559,
      "##aliha": 8560,
      "##shot": 8561,
      "hol": 8562,
      "kika": 8563,
      "##yaw": 8564,
      "nsit": 8565,
      "##obz": 8566,
      "tzawaj": 8567,
      "khasa": 8568,
      "pat": 8569,
      "##erti": 8570,
      "##wahad": 8571,
      "##اجة": 8572,
      "nl": 8573,
      "##mon": 8574,
      "lme": 8575,
      "wayli": 8576,
      "dahkin": 8577,
      "sda9": 8578,
      "##فر": 8579,
      "hita": 8580,
      "##dhach": 8581,
      "mw": 8582,
      "thar": 8583,
      "ec": 8584,
      "mik": 8585,
      "##mine": 8586,
      "##24": 8587,
      "3lash": 8588,
      "##adab": 8589,
      "kna": 8590,
      "cht": 8591,
      "##olin": 8592,
      "tabrklah": 8593,
      "##sw": 8594,
      "##awei": 8595,
      "ajamal": 8596,
      "gameplay": 8597,
      "##🙏🏼": 8598,
      "raj3i": 8599,
      "view": 8600,
      "a3ch": 8601,
      "hamdo": 8602,
      "watsap": 8603,
      "##zawaj": 8604,
      "##ahra": 8605,
      "frhana": 8606,
      "##rch": 8607,
      "gold": 8608,
      "3rft": 8609,
      "dghya": 8610,
      "help": 8611,
      "zen": 8612,
      "##zina": 8613,
      "bhalek": 8614,
      "👍❤": 8615,
      "##بع": 8616,
      "hola": 8617,
      "buz": 8618,
      "sai": 8619,
      "مو": 8620,
      "مث": 8621,
      "bl3aks": 8622,
      "latifa": 8623,
      "##🇺🇸": 8624,
      "chikha": 8625,
      "##chich": 8626,
      "##ohra": 8627,
      "tajriba": 8628,
      "tour": 8629,
      "narbah": 8630,
      "jna": 8631,
      "nkha": 8632,
      "##sli": 8633,
      "##une": 8634,
      "##asat": 8635,
      "ilyas": 8636,
      "tman": 8637,
      "laik": 8638,
      "wkay": 8639,
      "badahk": 8640,
      "##7ar": 8641,
      "##zl": 8642,
      "##ara7": 8643,
      "##وية": 8644,
      "##18": 8645,
      "khdm": 8646,
      "##itoni": 8647,
      "behal": 8648,
      "omo": 8649,
      "##صفات": 8650,
      "mene": 8651,
      "i3tikom": 8652,
      "##wda": 8653,
      "twsal": 8654,
      "jala": 8655,
      "دار": 8656,
      "##awch": 8657,
      "kan9": 8658,
      "diamond": 8659,
      "t3at": 8660,
      "##stagram": 8661,
      "wx": 8662,
      "sahel": 8663,
      "26": 8664,
      "##3s": 8665,
      "inx": 8666,
      "##frh": 8667,
      "fblast": 8668,
      "darak": 8669,
      "##nova": 8670,
      "mab9atch": 8671,
      "teh": 8672,
      "3taw": 8673,
      "bhl": 8674,
      "lkam": 8675,
      "##lato": 8676,
      "##hih": 8677,
      "##gogo": 8678,
      "sayid": 8679,
      "nb9a": 8680,
      "##افي": 8681,
      "##risi": 8682,
      "##iyad": 8683,
      "بن": 8684,
      "##una": 8685,
      "dyawlk": 8686,
      "##doda": 8687,
      "l7ala": 8688,
      "tkouni": 8689,
      "##fae": 8690,
      "same": 8691,
      "الرا": 8692,
      "hijab": 8693,
      "radia": 8694,
      "ibti": 8695,
      "هد": 8696,
      "le9": 8697,
      "حنا": 8698,
      "dieu": 8699,
      "hayda": 8700,
      "rbndz": 8701,
      "w7ay": 8702,
      "moda": 8703,
      "twli": 8704,
      "makraht": 8705,
      "##فيق": 8706,
      "##ilk": 8707,
      "yarhamha": 8708,
      "neb": 8709,
      "##زة": 8710,
      "##akat": 8711,
      "alahi": 8712,
      "ba9in": 8713,
      "الام": 8714,
      "##lf": 8715,
      "weldi": 8716,
      "9ari": 8717,
      "##اله": 8718,
      "siham": 8719,
      "##urs": 8720,
      "ikmal": 8721,
      "maday": 8722,
      "almos": 8723,
      "chari": 8724,
      "ghorba": 8725,
      "fav": 8726,
      "khoy": 8727,
      "y3awnak": 8728,
      "mab9": 8729,
      "😘❤": 8730,
      "fihe": 8731,
      "##😂❤": 8732,
      "kanchouf": 8733,
      "staf": 8734,
      "##hdr": 8735,
      "lwel": 8736,
      "tastahal": 8737,
      "hka": 8738,
      "hania": 8739,
      "jen": 8740,
      "##mlo": 8741,
      "sli": 8742,
      "ma3aj": 8743,
      "##9tal": 8744,
      "hyatak": 8745,
      "3omri": 8746,
      "mebrok": 8747,
      "##nx": 8748,
      "a7sn": 8749,
      "b7ala": 8750,
      "lmaghreb": 8751,
      "ملي": 8752,
      "akhira": 8753,
      "l3ayn": 8754,
      "##rki": 8755,
      "##9ola": 8756,
      "dorof": 8757,
      "##akha": 8758,
      "dakhl": 8759,
      "htana": 8760,
      "amira": 8761,
      "talab": 8762,
      "pra": 8763,
      "##gy": 8764,
      "##kal": 8765,
      "##78": 8766,
      "##cher": 8767,
      "##eman": 8768,
      "##rbha": 8769,
      "creme": 8770,
      "didicas": 8771,
      "chtirak": 8772,
      "fi3lan": 8773,
      "pres": 8774,
      "3lam": 8775,
      "##هر": 8776,
      "##erib": 8777,
      "bayan": 8778,
      "loub": 8779,
      "bseh": 8780,
      "2018": 8781,
      "45": 8782,
      "##gna": 8783,
      "t3lm": 8784,
      "kanatmana": 8785,
      "zo": 8786,
      "kayb": 8787,
      "l9lawi": 8788,
      "3afakoum": 8789,
      "tkharbi9": 8790,
      "also": 8791,
      "##jih": 8792,
      "tir": 8793,
      "لو": 8794,
      "##fan": 8795,
      "##ajat": 8796,
      "##osi": 8797,
      "europe": 8798,
      "hadr": 8799,
      "darkom": 8800,
      "##ants": 8801,
      "##b3k": 8802,
      "sit": 8803,
      "##🇳🇵": 8804,
      "##a3m": 8805,
      "##ارات": 8806,
      "ma3ndk": 8807,
      "die": 8808,
      "bles": 8809,
      "3araf": 8810,
      "giveaway": 8811,
      "zam": 8812,
      "##haba": 8813,
      "batal": 8814,
      "7ar": 8815,
      "##aklo": 8816,
      "يار": 8817,
      "##oudia": 8818,
      "m3al": 8819,
      "l3o9ba": 8820,
      "mafhmtch": 8821,
      "ruok": 8822,
      "3o": 8823,
      "oman": 8824,
      "kathm": 8825,
      "lkas": 8826,
      "b2": 8827,
      "دخل": 8828,
      "dema": 8829,
      "tbr": 8830,
      "##w9af": 8831,
      "##9to": 8832,
      "kanbrik": 8833,
      "ji3": 8834,
      "##me3": 8835,
      "gals": 8836,
      "apres": 8837,
      "3lch": 8838,
      "السلام": 8839,
      "tom": 8840,
      "##3arf": 8841,
      "orabi": 8842,
      "##tions": 8843,
      "##rbo": 8844,
      "zineb": 8845,
      "srah": 8846,
      "قال": 8847,
      "ها": 8848,
      "##عرف": 8849,
      "wech": 8850,
      "kawtar": 8851,
      "hg": 8852,
      "dahktini": 8853,
      "katbani": 8854,
      "amazigh": 8855,
      "36": 8856,
      "##bla": 8857,
      "lmor": 8858,
      "maskh": 8859,
      "##shl": 8860,
      "بد": 8861,
      "##yor": 8862,
      "##ykom": 8863,
      "matan": 8864,
      "dih": 8865,
      "lwat": 8866,
      "tchar": 8867,
      "##liwa": 8868,
      "mej": 8869,
      "##mih": 8870,
      "##atik": 8871,
      "khase": 8872,
      "taya": 8873,
      "akhati": 8874,
      "souha": 8875,
      "layla": 8876,
      "dorya": 8877,
      "kathama9": 8878,
      "ds": 8879,
      "mard": 8880,
      "##jtama3": 8881,
      "مب": 8882,
      "ma3en": 8883,
      "##9ah": 8884,
      "meno": 8885,
      "msakan": 8886,
      "snap": 8887,
      "sis": 8888,
      "##7ach": 8889,
      "ador": 8890,
      "قل": 8891,
      "kadab": 8892,
      "##bghikom": 8893,
      "odir": 8894,
      "##ital": 8895,
      "laflos": 8896,
      "galaxy": 8897,
      "##zad": 8898,
      "##ثر": 8899,
      "sm3": 8900,
      "ques": 8901,
      "zbi": 8902,
      "##3ml": 8903,
      "inv": 8904,
      "maryam": 8905,
      "##land": 8906,
      "##jrimin": 8907,
      "ed": 8908,
      "اليو": 8909,
      "mola": 8910,
      "##chofi": 8911,
      "rai3": 8912,
      "##aux": 8913,
      "blil": 8914,
      "frasi": 8915,
      "##ouba": 8916,
      "l3a9": 8917,
      "anaho": 8918,
      "##3ib": 8919,
      "iche": 8920,
      "28": 8921,
      "wek": 8922,
      "matns": 8923,
      "toujours": 8924,
      "##hini": 8925,
      "donia": 8926,
      "vir": 8927,
      "blach": 8928,
      "salut": 8929,
      "likayn": 8930,
      "mab9itch": 8931,
      "awa": 8932,
      "feme": 8933,
      "sire": 8934,
      "##versa": 8935,
      "kay9": 8936,
      "mosal": 8937,
      "##edra": 8938,
      "lh9": 8939,
      "mjar": 8940,
      "♥♥": 8941,
      "##uto": 8942,
      "##عل": 8943,
      "lij": 8944,
      "ghalat": 8945,
      "lkalb": 8946,
      "معا": 8947,
      "huawei": 8948,
      "3anda": 8949,
      "azbi": 8950,
      "clip": 8951,
      "##ضي": 8952,
      "ikono": 8953,
      "##lion": 8954,
      "buny": 8955,
      "##stand": 8956,
      "tgoul": 8957,
      "walda": 8958,
      "ajmal": 8959,
      "noura": 8960,
      "##54": 8961,
      "ma3raf": 8962,
      "##drti": 8963,
      "##rn": 8964,
      "ihafdek": 8965,
      "fed": 8966,
      "تن": 8967,
      "وس": 8968,
      "##ghik": 8969,
      "chi7aja": 8970,
      "chorot": 8971,
      "##laba": 8972,
      "meak": 8973,
      "omg": 8974,
      "3aref": 8975,
      "3chiri": 8976,
      "9odam": 8977,
      "mti": 8978,
      "use": 8979,
      "ري": 8980,
      "chrab": 8981,
      "twar": 8982,
      "jadida": 8983,
      "yb9a": 8984,
      "##fna": 8985,
      "##erba": 8986,
      "bghitk": 8987,
      "3z": 8988,
      "##wam": 8989,
      "srira": 8990,
      "##cu": 8991,
      "akoya": 8992,
      "##3alm": 8993,
      "##ba3d": 8994,
      "comon": 8995,
      "بق": 8996,
      "mezi": 8997,
      "l9nat": 8998,
      "form": 8999,
      "##ghay": 9000,
      "##ilat": 9001,
      "year": 9002,
      "##كا": 9003,
      "##ehe": 9004,
      "kadwi": 9005,
      "het": 9006,
      "##esan": 9007,
      "bizo": 9008,
      "lkhdma": 9009,
      "##رس": 9010,
      "الناس": 9011,
      "mena": 9012,
      "##mchiw": 9013,
      "##wara": 9014,
      "##ense": 9015,
      "yekh": 9016,
      "wanta": 9017,
      "##79": 9018,
      "##orat": 9019,
      "madam": 9020,
      "##انة": 9021,
      "nafsi": 9022,
      "wjhk": 9023,
      "chahitini": 9024,
      "##douch": 9025,
      "##ratni": 9026,
      "matbkich": 9027,
      "##limine": 9028,
      "lifiha": 9029,
      "##lication": 9030,
      "##mas": 9031,
      "tfer": 9032,
      "zuina": 9033,
      "hl9a": 9034,
      "##arbi": 9035,
      "lfas": 9036,
      "zewin": 9037,
      "لت": 9038,
      "##houch": 9039,
      "##œur": 9040,
      "##a3d": 9041,
      "galha": 9042,
      "abdel": 9043,
      "xwiya": 9044,
      "##ajboni": 9045,
      "jem": 9046,
      "شاء": 9047,
      "##hs": 9048,
      "twsl": 9049,
      "kanahma9": 9050,
      "df": 9051,
      "##wld": 9052,
      "vues": 9053,
      "ابوني": 9054,
      "ku": 9055,
      "nsab": 9056,
      "tarikh": 9057,
      "pap": 9058,
      "sous": 9059,
      "tq": 9060,
      "asfi": 9061,
      "dehk": 9062,
      "chtarki": 9063,
      "lkom": 9064,
      "internet": 9065,
      "nrba7": 9066,
      "نفس": 9067,
      "##yato": 9068,
      "fkh": 9069,
      "##3a9": 9070,
      "deyali": 9071,
      "liv": 9072,
      "##enu": 9073,
      "inxa": 9074,
      "lo3ba": 9075,
      "##hing": 9076,
      "##ou9": 9077,
      "lkhr": 9078,
      "hmdlh": 9079,
      "##7as": 9080,
      "##14": 9081,
      "bech": 9082,
      "##ولة": 9083,
      "kolshi": 9084,
      "bsa7a": 9085,
      "sory": 9086,
      "ljam": 9087,
      "kantsana": 9088,
      "chik": 9089,
      "##bik": 9090,
      "gel": 9091,
      "tib": 9092,
      "##3la": 9093,
      "lmaghribi": 9094,
      "dayar": 9095,
      "tanjaw": 9096,
      "##arif": 9097,
      "ljin": 9098,
      "tawado3": 9099,
      "w7da": 9100,
      "adrari": 9101,
      "lahda": 9102,
      "mab9itich": 9103,
      "belanova": 9104,
      "ya3tek": 9105,
      "##36": 9106,
      "🤲🏻": 9107,
      "##kit": 9108,
      "##versaire": 9109,
      "klamak": 9110,
      "lma9adir": 9111,
      "lz": 9112,
      "##tana": 9113,
      "ma3k": 9114,
      "##cial": 9115,
      "##amima": 9116,
      "##ghorba": 9117,
      "mo9": 9118,
      "lbak": 9119,
      "weli": 9120,
      "l3an": 9121,
      "mziwna": 9122,
      "wrah": 9123,
      "mandir": 9124,
      "##walidin": 9125,
      "t3i": 9126,
      "##شر": 9127,
      "y3ni": 9128,
      "algerien": 9129,
      "3w": 9130,
      "##ribi": 9131,
      "khatr": 9132,
      "felic": 9133,
      "3jbtini": 9134,
      "hora": 9135,
      "kamli": 9136,
      "kenza": 9137,
      "##gad": 9138,
      "##jl": 9139,
      "imkn": 9140,
      "9dima": 9141,
      "اج": 9142,
      "##16": 9143,
      "##arfo": 9144,
      "malek": 9145,
      "##3ibad": 9146,
      "##رجو": 9147,
      "cor": 9148,
      "idris": 9149,
      "الاس": 9150,
      "madirch": 9151,
      "papa": 9152,
      "sma3t": 9153,
      "##🇮🇱🇮🇱": 9154,
      "tkhli": 9155,
      "##brk": 9156,
      "charakt": 9157,
      "maqu": 9158,
      "marto": 9159,
      "l9ar": 9160,
      "##louh": 9161,
      "tebarklah": 9162,
      "kayjiw": 9163,
      "maradich": 9164,
      "byna": 9165,
      "##نوعة": 9166,
      "ntab": 9167,
      "ljaza": 9168,
      "ard": 9169,
      "osm": 9170,
      "klab": 9171,
      "yna": 9172,
      "kanbki": 9173,
      "dyala": 9174,
      "makdab": 9175,
      "ane": 9176,
      "whta": 9177,
      "madame": 9178,
      "mky": 9179,
      "kat3jabni": 9180,
      "yhafdek": 9181,
      "khya": 9182,
      "##ekek": 9183,
      "dist": 9184,
      "khaski": 9185,
      "twhchnak": 9186,
      "rda": 9187,
      "sbr": 9188,
      "##tok": 9189,
      "mkal": 9190,
      "لق": 9191,
      "##jawb": 9192,
      "yamat": 9193,
      "koula": 9194,
      "rz": 9195,
      "sch": 9196,
      "##rina": 9197,
      "lmloli": 9198,
      "9anate": 9199,
      "shiha": 9200,
      "ybarek": 9201,
      "##pan": 9202,
      "high": 9203,
      "##awaj": 9204,
      "##barkalah": 9205,
      "##izo": 9206,
      "##odat": 9207,
      "da7ak": 9208,
      "حبيبتي": 9209,
      "dirli": 9210,
      "##manaw": 9211,
      "العالم": 9212,
      "##ته": 9213,
      "##🇫🇷🇫🇷": 9214,
      "raji3": 9215,
      "jaml": 9216,
      "soufian": 9217,
      "##vh": 9218,
      "hadga": 9219,
      "khalihom": 9220,
      "الفيديو": 9221,
      "cop": 9222,
      "wara": 9223,
      "khod": 9224,
      "isam": 9225,
      "carte": 9226,
      "tarika": 9227,
      "3ichi": 9228,
      "herochima": 9229,
      "moghamara": 9230,
      "a3chiri": 9231,
      "##mach": 9232,
      "##mich": 9233,
      "hsit": 9234,
      "hlib": 9235,
      "wna": 9236,
      "mzwja": 9237,
      "liday": 9238,
      "##a3i": 9239,
      "enti": 9240,
      "trik": 9241,
      "##douz": 9242,
      "haydi": 9243,
      "##say": 9244,
      "ikhalih": 9245,
      "sek": 9246,
      "##nizar": 9247,
      "meri": 9248,
      "houda": 9249,
      "hja": 9250,
      "do3a": 9251,
      "cade": 9252,
      "##sch": 9253,
      "yarit": 9254,
      "mert": 9255,
      "##akhar": 9256,
      "shabat": 9257,
      "amen": 9258,
      "nifa9": 9259,
      "##jn": 9260,
      "understand": 9261,
      "##ody": 9262,
      "tmtil": 9263,
      "lb3dyatkom": 9264,
      "dom": 9265,
      "old": 9266,
      "##dbti": 9267,
      "ykhalilik": 9268,
      "ochokran": 9269,
      "ln": 9270,
      "nom": 9271,
      "##3lm": 9272,
      "makin": 9273,
      "aniversaire": 9274,
      "maba": 9275,
      "lamgharba": 9276,
      "sour": 9277,
      "vas": 9278,
      "ma3lich": 9279,
      "##khafch": 9280,
      "nous": 9281,
      "وان": 9282,
      "##peau": 9283,
      "##ابع": 9284,
      "tla3ti": 9285,
      "zeb": 9286,
      "لب": 9287,
      "manar": 9288,
      "sofi": 9289,
      "souad": 9290,
      "souf": 9291,
      "chit": 9292,
      "end": 9293,
      "10m": 9294,
      "samhi": 9295,
      "kli": 9296,
      "##chahi": 9297,
      "##نسا": 9298,
      "lmontage": 9299,
      "ks": 9300,
      "##mch": 9301,
      "##yid": 9302,
      "##per": 9303,
      "lim3aya": 9304,
      "majach": 9305,
      "tyab": 9306,
      "wata": 9307,
      "khor": 9308,
      "##khrj": 9309,
      "##صة": 9310,
      "tube": 9311,
      "fwj": 9312,
      "mohm": 9313,
      "3ande": 9314,
      "##🇲🇦❤": 9315,
      "dayl": 9316,
      "##mli": 9317,
      "lkheraz": 9318,
      "##gk": 9319,
      "mlih": 9320,
      "wesal": 9321,
      "sbagha": 9322,
      "bx": 9323,
      "rham": 9324,
      "akhiti": 9325,
      "wlahta": 9326,
      "telefon": 9327,
      "elih": 9328,
      "##بد": 9329,
      "##aro": 9330,
      "ilah": 9331,
      "khtar": 9332,
      "wlina": 9333,
      "tabi3": 9334,
      "stup": 9335,
      "ib9a": 9336,
      "alhm": 9337,
      "mardi": 9338,
      "##dakhal": 9339,
      "nst": 9340,
      "syda": 9341,
      "❤😍": 9342,
      "jamale": 9343,
      "menha": 9344,
      "3mri": 9345,
      "bezef": 9346,
      "mghribi": 9347,
      "##9si": 9348,
      "jo3": 9349,
      "girl": 9350,
      "f3azkom": 9351,
      "t9aw": 9352,
      "##youtube": 9353,
      "twahchnak": 9354,
      "9rit": 9355,
      "ena": 9356,
      "ljo": 9357,
      "##ays": 9358,
      "##3ih": 9359,
      "drto": 9360,
      "slamtha": 9361,
      "tuni": 9362,
      "3jabtini": 9363,
      "##abs": 9364,
      "##rod": 9365,
      "tayt": 9366,
      "##lma": 9367,
      "kante": 9368,
      "##ari9a": 9369,
      "flma": 9370,
      "where": 9371,
      "t3am": 9372,
      "##تر": 9373,
      "oukhti": 9374,
      "flmaghrib": 9375,
      "##tahi": 9376,
      "3azkom": 9377,
      "##moh": 9378,
      "bark": 9379,
      "basla": 9380,
      "hbibi": 9381,
      "##tor": 9382,
      "##7r": 9383,
      "##7a9": 9384,
      "##🇧🇪": 9385,
      "asalam": 9386,
      "##sion": 9387,
      "idan": 9388,
      "aut": 9389,
      "##alih": 9390,
      "reg": 9391,
      "sahafi": 9392,
      "##adak": 9393,
      "##9ima": 9394,
      "##itich": 9395,
      "tat3": 9396,
      "bq": 9397,
      "bdi": 9398,
      "tyr": 9399,
      "chaima": 9400,
      "##zel": 9401,
      "##chit": 9402,
      "##lmin": 9403,
      "namchi": 9404,
      "jrbtha": 9405,
      "##ster": 9406,
      "testahli": 9407,
      "35": 9408,
      "pis": 9409,
      "chain": 9410,
      "##vice": 9411,
      "rij": 9412,
      "charika": 9413,
      "##9an": 9414,
      "##sanaw": 9415,
      "como": 9416,
      "tzad": 9417,
      "3alm": 9418,
      "btwfi9": 9419,
      "##leb": 9420,
      "##74": 9421,
      "tahowa": 9422,
      "try": 9423,
      "salih": 9424,
      "kathm9": 9425,
      "inform": 9426,
      "matkhali": 9427,
      "##hamed": 9428,
      "awadi": 9429,
      "bshtkom": 9430,
      "mafihach": 9431,
      "nid": 9432,
      "olb": 9433,
      "تو": 9434,
      "khla": 9435,
      "##waslo": 9436,
      "##توفيق": 9437,
      "##ren": 9438,
      "##bob": 9439,
      "tchri": 9440,
      "dat": 9441,
      "dans": 9442,
      "d9i9": 9443,
      "##lis": 9444,
      "ihfdek": 9445,
      "trak": 9446,
      "##zyan": 9447,
      "ghy": 9448,
      "mhtaj": 9449,
      "##roud": 9450,
      "##try": 9451,
      "حيت": 9452,
      "mouna": 9453,
      "elh": 9454,
      "mnwra": 9455,
      "mar7ba": 9456,
      "lef": 9457,
      "mabghach": 9458,
      "b4it": 9459,
      "kina": 9460,
      "ozid": 9461,
      "pre": 9462,
      "##اون": 9463,
      "##طل": 9464,
      "##dkoum": 9465,
      "d3af": 9466,
      "fakh": 9467,
      "jh": 9468,
      "nu": 9469,
      "ral": 9470,
      "matal": 9471,
      "##ftah": 9472,
      "saratan": 9473,
      "##7in": 9474,
      "sow": 9475,
      "##yer": 9476,
      "##bit": 9477,
      "hadrat": 9478,
      "ismail": 9479,
      "##za9kom": 9480,
      "كاين": 9481,
      "cous": 9482,
      "lkal": 9483,
      "b3di": 9484,
      "mouchkil": 9485,
      "##ynch": 9486,
      "ori": 9487,
      "olk": 9488,
      "##doulah": 9489,
      "##mkara": 9490,
      "ntia": 9491,
      "rf": 9492,
      "##la3t": 9493,
      "ire": 9494,
      "b39li": 9495,
      "lawlidat": 9496,
      "##cine": 9497,
      "##sena": 9498,
      "lmazid": 9499,
      "slamto": 9500,
      "nkoun": 9501,
      "##gs": 9502,
      "##9oni": 9503,
      "arabic": 9504,
      "headshot": 9505,
      "moha": 9506,
      "abonee": 9507,
      "3ada": 9508,
      "jiran": 9509,
      "ghad": 9510,
      "##farah": 9511,
      "##elek": 9512,
      "mahr": 9513,
      "plis": 9514,
      "وك": 9515,
      "##❤👍": 9516,
      "##وة": 9517,
      "محمد": 9518,
      "bera": 9519,
      "gaz": 9520,
      "##بادل": 9521,
      "##etk": 9522,
      "##dez": 9523,
      "##fakar": 9524,
      "##ydi": 9525,
      "##✌✌": 9526,
      "katbghi": 9527,
      "10dh": 9528,
      "lras": 9529,
      "zoz": 9530,
      "##awal": 9531,
      "ta7adi": 9532,
      "ra9i": 9533,
      "darat": 9534,
      "##ribga": 9535,
      "##b3d": 9536,
      "##اطمة": 9537,
      "hdik": 9538,
      "mp": 9539,
      "lhaj": 9540,
      "nepal": 9541,
      "عليها": 9542,
      "حلو": 9543,
      "a9rab": 9544,
      "beter": 9545,
      "##ahdar": 9546,
      "##edt": 9547,
      "bousa": 9548,
      "ndkhol": 9549,
      "##farajha": 9550,
      "birth": 9551,
      "##l3o": 9552,
      "bimo": 9553,
      "twah": 9554,
      "150": 9555,
      "gouli": 9556,
      "x1": 9557,
      "##tagh": 9558,
      "3amri": 9559,
      "الاخ": 9560,
      "imkan": 9561,
      "l9lb": 9562,
      "##9ata3": 9563,
      "walidiya": 9564,
      "hmad": 9565,
      "3fk": 9566,
      "jrab": 9567,
      "lbr": 9568,
      "taba3": 9569,
      "sahbti": 9570,
      "m9awd": 9571,
      "dine": 9572,
      "chnah": 9573,
      "lhwayj": 9574,
      "lwlada": 9575,
      "titiz": 9576,
      "lfa": 9577,
      "vit": 9578,
      "tbak": 9579,
      "noti": 9580,
      "##yali": 9581,
      "##3iha": 9582,
      "ajiw": 9583,
      "tetouan": 9584,
      "vc": 9585,
      "##jami3": 9586,
      "katr": 9587,
      "##iao": 9588,
      "rijal": 9589,
      "احسن": 9590,
      "tsal": 9591,
      "mahtaja": 9592,
      "##سك": 9593,
      "la5": 9594,
      "9tel": 9595,
      "##dos": 9596,
      "ahlan": 9597,
      "##cias": 9598,
      "sema": 9599,
      "##ريد": 9600,
      "makrhtch": 9601,
      "mre": 9602,
      "t9dr": 9603,
      "khodi": 9604,
      "##chen": 9605,
      "lbrah": 9606,
      "fwahd": 9607,
      "fakartini": 9608,
      "##za9ni": 9609,
      "cat": 9610,
      "sout": 9611,
      "won": 9612,
      "##let": 9613,
      "lima3": 9614,
      "قبل": 9615,
      "##irin": 9616,
      "##afiha": 9617,
      "wasafatak": 9618,
      "yerham": 9619,
      "tfrjt": 9620,
      "ez": 9621,
      "mun": 9622,
      "##frej": 9623,
      "kolona": 9624,
      "abo": 9625,
      "tstahel": 9626,
      "yout": 9627,
      "يعني": 9628,
      "##pre": 9629,
      "lbebe": 9630,
      "tag": 9631,
      "tstahlo": 9632,
      "lhalwa": 9633,
      "mst": 9634,
      "##adya": 9635,
      "##richa": 9636,
      "aten": 9637,
      "oran": 9638,
      "🤣😂": 9639,
      "chtarkt": 9640,
      "بك": 9641,
      "ست": 9642,
      "##jan": 9643,
      "##bid": 9644,
      "cute": 9645,
      "faz": 9646,
      "tahdar": 9647,
      "htiram": 9648,
      "##dulilah": 9649,
      "mlyon": 9650,
      "9el": 9651,
      "ig": 9652,
      "visa": 9653,
      "غزل": 9654,
      "##idir": 9655,
      "salina": 9656,
      "test": 9657,
      "3aziz": 9658,
      "jma3": 9659,
      "hamad": 9660,
      "trad": 9661,
      "jawk": 9662,
      "brav": 9663,
      "##3tiw": 9664,
      "belkhir": 9665,
      "safe": 9666,
      "ostad": 9667,
      "ain": 9668,
      "khdama": 9669,
      "##khlikom": 9670,
      "##drb": 9671,
      "ari": 9672,
      "galak": 9673,
      "##لية": 9674,
      "dertha": 9675,
      "hnina": 9676,
      "jom": 9677,
      "##bani": 9678,
      "##erd": 9679,
      "kati": 9680,
      "التي": 9681,
      "kaybghi": 9682,
      "mask": 9683,
      "wiy": 9684,
      "lkhadma": 9685,
      "libra": 9686,
      "##sil": 9687,
      "waha": 9688,
      "lkdob": 9689,
      "##kini": 9690,
      "##ety": 9691,
      "lwar": 9692,
      "istar": 9693,
      "##👏🏻👏🏻": 9694,
      "fot": 9695,
      "nabi": 9696,
      "##ahwa": 9697,
      "##abi3in": 9698,
      "slt": 9699,
      "##xh": 9700,
      "##ful": 9701,
      "##3tikom": 9702,
      "y3tikom": 9703,
      "##mara": 9704,
      "##🤦♀": 9705,
      "##am3o": 9706,
      "##die": 9707,
      "##chark": 9708,
      "canal": 9709,
      "##wasal": 9710,
      "aziza": 9711,
      "sami": 9712,
      "##hni": 9713,
      "wlhta": 9714,
      "##yatek": 9715,
      "layn": 9716,
      "3ayni": 9717,
      "laki": 9718,
      "nachat": 9719,
      "ajma3": 9720,
      "##اخ": 9721,
      "##awar": 9722,
      "lw9t": 9723,
      "9tlt": 9724,
      "xia": 9725,
      "بكل": 9726,
      "khso": 9727,
      "3ayb": 9728,
      "hari": 9729,
      "odak": 9730,
      "m3ake": 9731,
      "##teh": 9732,
      "sifti": 9733,
      "9ana": 9734,
      "3adiya": 9735,
      "ngoul": 9736,
      "اد": 9737,
      "##ms": 9738,
      "katak": 9739,
      "l9adiya": 9740,
      "omi": 9741,
      "ta3ali9": 9742,
      "وق": 9743,
      "after": 9744,
      "##atna": 9745,
      "ahlam": 9746,
      "dwz": 9747,
      "ifrhak": 9748,
      "sans": 9749,
      "kandiro": 9750,
      "lmr": 9751,
      "matalan": 9752,
      "##atila": 9753,
      "##anb": 9754,
      "kiban": 9755,
      "bouh": 9756,
      "insha": 9757,
      "irhamha": 9758,
      "##uch": 9759,
      "##yba": 9760,
      "##atbi": 9761,
      "tekh": 9762,
      "##atil": 9763,
      "##edak": 9764,
      "bizaf": 9765,
      "##ديد": 9766,
      "##rfi": 9767,
      "معاك": 9768,
      "khaled": 9769,
      "fem": 9770,
      "lard": 9771,
      "##gt": 9772,
      "bnina": 9773,
      "اخر": 9774,
      "lbac": 9775,
      "hind": 9776,
      "hxoma": 9777,
      "a9al": 9778,
      "uni": 9779,
      "##ount": 9780,
      "المع": 9781,
      "katd": 9782,
      "msati": 9783,
      "knd": 9784,
      "so2al": 9785,
      "bti": 9786,
      "##gf": 9787,
      "rasol": 9788,
      "flwl": 9789,
      "smh": 9790,
      "lwld": 9791,
      "right": 9792,
      "enf": 9793,
      "f9anat": 9794,
      "yfrhk": 9795,
      "##alim": 9796,
      "##el9a": 9797,
      "##halek": 9798,
      "trabi": 9799,
      "etes": 9800,
      "هذه": 9801,
      "##ic": 9802,
      "stat": 9803,
      "yawm": 9804,
      "meskine": 9805,
      "l9iti": 9806,
      "❤👍": 9807,
      "mnak": 9808,
      "##jban": 9809,
      "##bdlo": 9810,
      "##🇮🇳🇮🇳": 9811,
      "ciao": 9812,
      "##aks": 9813,
      "rbandaz": 9814,
      "نس": 9815,
      "khawya": 9816,
      "fhadchi": 9817,
      "irhmo": 9818,
      "kharja": 9819,
      "وف": 9820,
      "##38": 9821,
      "##ريق": 9822,
      "partage": 9823,
      "tata": 9824,
      "سم": 9825,
      "عاي": 9826,
      "igh": 9827,
      "nxof": 9828,
      "##fet": 9829,
      "##oumi": 9830,
      "bida": 9831,
      "dolm": 9832,
      "##d9": 9833,
      "rahi": 9834,
      "lwa9i3": 9835,
      "xiaomi": 9836,
      "##ea": 9837,
      "mox": 9838,
      "ahna": 9839,
      "smhi": 9840,
      "blkh": 9841,
      "mosaba9a": 9842,
      "shar": 9843,
      "##🏻♀": 9844,
      "##بت": 9845,
      "##amni": 9846,
      "##bers": 9847,
      "d3mini": 9848,
      "yre": 9849,
      "##grat": 9850,
      "##dok": 9851,
      "wladt": 9852,
      "email": 9853,
      "amrak": 9854,
      "lfran": 9855,
      "ro9ya": 9856,
      "7awli": 9857,
      "3ir": 9858,
      "hw": 9859,
      "helo": 9860,
      "khaw": 9861,
      "tal3a": 9862,
      "las9a": 9863,
      "در": 9864,
      "chada": 9865,
      "3adim": 9866,
      "dhakt": 9867,
      "1vs": 9868,
      "##edam": 9869,
      "##dirha": 9870,
      "moskha": 9871,
      "hon": 9872,
      "##kum": 9873,
      "sihi": 9874,
      "waraha": 9875,
      "birthday": 9876,
      "jum": 9877,
      "pase": 9878,
      "afri": 9879,
      "katsali": 9880,
      "iwafa9": 9881,
      "##nifi": 9882,
      "quali": 9883,
      "nhdar": 9884,
      "halal": 9885,
      "kand3i": 9886,
      "d3moni": 9887,
      "zouina": 9888,
      "3ich": 9889,
      "##wira": 9890,
      "##26": 9891,
[...]
